{
  "version": "1.0",
  "truncation": null,
  "padding": null,
  "added_tokens": [
    {
      "id": 0,
      "content": "[UNK]",
      "single_word": false,
      "lstrip": false,
      "rstrip": false,
      "normalized": false,
      "special": true
    },
    {
      "id": 1,
      "content": "[CLS]",
      "single_word": false,
      "lstrip": false,
      "rstrip": false,
      "normalized": false,
      "special": true
    },
    {
      "id": 2,
      "content": "[SEP]",
      "single_word": false,
      "lstrip": false,
      "rstrip": false,
      "normalized": false,
      "special": true
    },
    {
      "id": 3,
      "content": "[PAD]",
      "single_word": false,
      "lstrip": false,
      "rstrip": false,
      "normalized": false,
      "special": true
    },
    {
      "id": 4,
      "content": "[MASK]",
      "single_word": false,
      "lstrip": false,
      "rstrip": false,
      "normalized": false,
      "special": true
    },
    {
      "id": 5,
      "content": "[END]",
      "single_word": false,
      "lstrip": false,
      "rstrip": false,
      "normalized": false,
      "special": true
    },
    {
      "id": 6,
      "content": "[START]",
      "single_word": false,
      "lstrip": false,
      "rstrip": false,
      "normalized": false,
      "special": true
    }
  ],
  "normalizer": {
    "type": "BertNormalizer",
    "clean_text": false,
    "handle_chinese_chars": true,
    "strip_accents": null,
    "lowercase": false
  },
  "pre_tokenizer": {
    "type": "Whitespace"
  },
  "post_processor": null,
  "decoder": null,
  "model": {
    "type": "WordPiece",
    "unk_token": "[UNK]",
    "continuing_subword_prefix": "##",
    "max_input_chars_per_word": 100,
    "vocab": {
      "[UNK]": 0,
      "[CLS]": 1,
      "[SEP]": 2,
      "[PAD]": 3,
      "[MASK]": 4,
      "[END]": 5,
      "[START]": 6,
      "!": 7,
      "\"": 8,
      "&": 9,
      "'": 10,
      "(": 11,
      ")": 12,
      "*": 13,
      ",": 14,
      "-": 15,
      ".": 16,
      "/": 17,
      "0": 18,
      "1": 19,
      "2": 20,
      "3": 21,
      "4": 22,
      "5": 23,
      "6": 24,
      "7": 25,
      "8": 26,
      "9": 27,
      ":": 28,
      ";": 29,
      "<": 30,
      "=": 31,
      ">": 32,
      "?": 33,
      "A": 34,
      "B": 35,
      "C": 36,
      "D": 37,
      "E": 38,
      "F": 39,
      "G": 40,
      "H": 41,
      "I": 42,
      "J": 43,
      "K": 44,
      "L": 45,
      "M": 46,
      "N": 47,
      "O": 48,
      "P": 49,
      "Q": 50,
      "R": 51,
      "S": 52,
      "T": 53,
      "U": 54,
      "V": 55,
      "W": 56,
      "X": 57,
      "Y": 58,
      "Z": 59,
      "[": 60,
      "\\": 61,
      "]": 62,
      "^": 63,
      "_": 64,
      "`": 65,
      "a": 66,
      "b": 67,
      "c": 68,
      "d": 69,
      "e": 70,
      "f": 71,
      "g": 72,
      "h": 73,
      "i": 74,
      "j": 75,
      "k": 76,
      "l": 77,
      "m": 78,
      "n": 79,
      "o": 80,
      "p": 81,
      "q": 82,
      "r": 83,
      "s": 84,
      "t": 85,
      "u": 86,
      "v": 87,
      "w": 88,
      "x": 89,
      "y": 90,
      "z": 91,
      "{": 92,
      "|": 93,
      "}": 94,
      "£": 95,
      "¦": 96,
      "«": 97,
      "°": 98,
      "»": 99,
      "é": 100,
      "ü": 101,
      "˜": 102,
      "–": 103,
      "—": 104,
      "‘": 105,
      "’": 106,
      "“": 107,
      "”": 108,
      "•": 109,
      "…": 110,
      "##v": 111,
      "##o": 112,
      "##i": 113,
      "##d": 114,
      "##n": 115,
      "##g": 116,
      "##u": 117,
      "##r": 118,
      "##e": 119,
      "##a": 120,
      "##c": 121,
      "##p": 122,
      "##t": 123,
      "##q": 124,
      "##s": 125,
      "##h": 126,
      "##l": 127,
      "##f": 128,
      "##z": 129,
      "##y": 130,
      "##m": 131,
      "##k": 132,
      "##¦": 133,
      "##/": 134,
      "##H": 135,
      "##w": 136,
      "##x": 137,
      "##b": 138,
      "##E": 139,
      "##T": 140,
      "##U": 141,
      "##R": 142,
      "##N": 143,
      "##J": 144,
      "##)": 145,
      "##O": 146,
      "##A": 147,
      "##M": 148,
      "##Q": 149,
      "##I": 150,
      "##Y": 151,
      "##S": 152,
      "##G": 153,
      "##W": 154,
      "##K": 155,
      "##:": 156,
      "##?": 157,
      "##1": 158,
      "##L": 159,
      "##5": 160,
      "##4": 161,
      "##P": 162,
      "##j": 163,
      "##D": 164,
      "##.": 165,
      "##…": 166,
      "##”": 167,
      "##V": 168,
      "##F": 169,
      "##2": 170,
      "##\"": 171,
      "##'": 172,
      "##X": 173,
      "##’": 174,
      "##C": 175,
      "##‘": 176,
      "##B": 177,
      "##!": 178,
      "##,": 179,
      "##-": 180,
      "##“": 181,
      "##6": 182,
      "##3": 183,
      "##7": 184,
      "##ü": 185,
      "##0": 186,
      "##*": 187,
      "##—": 188,
      "##]": 189,
      "##»": 190,
      "##Z": 191,
      "##;": 192,
      "##}": 193,
      "##(": 194,
      "##–": 195,
      "##_": 196,
      "##8": 197,
      "##^": 198,
      "##•": 199,
      "##=": 200,
      "##9": 201,
      "##£": 202,
      "##`": 203,
      "##é": 204,
      "##°": 205,
      "##˜": 206,
      "##\\": 207,
      "##>": 208,
      "##he": 209,
      "##in": 210,
      "the": 211,
      "##er": 212,
      "##ed": 213,
      "##ou": 214,
      "##ar": 215,
      "##ing": 216,
      "##nd": 217,
      "##or": 218,
      "##on": 219,
      "##at": 220,
      "to": 221,
      "##as": 222,
      "##is": 223,
      "##id": 224,
      "##ll": 225,
      "##en": 226,
      "and": 227,
      "th": 228,
      "##es": 229,
      "of": 230,
      "##ry": 231,
      "##re": 232,
      "he": 233,
      "ha": 234,
      "##an": 235,
      "in": 236,
      "##it": 237,
      "##le": 238,
      "##arry": 239,
      "##ow": 240,
      "sa": 241,
      "Harry": 242,
      "##ly": 243,
      "##ot": 244,
      "##om": 245,
      "was": 246,
      "be": 247,
      "##gh": 248,
      "##ut": 249,
      "said": 250,
      "you": 251,
      "##ac": 252,
      "his": 253,
      "##ld": 254,
      "st": 255,
      "it": 256,
      "##oo": 257,
      "##et": 258,
      "##im": 259,
      "on": 260,
      "##ic": 261,
      "##ion": 262,
      "wh": 263,
      "##st": 264,
      "##ir": 265,
      "had": 266,
      "##ve": 267,
      "that": 268,
      "##ur": 269,
      "##ght": 270,
      "##se": 271,
      "##ver": 272,
      "##ent": 273,
      "##ad": 274,
      "at": 275,
      "as": 276,
      "re": 277,
      "##al": 278,
      "him": 279,
      "##ter": 280,
      "##ag": 281,
      "##ro": 282,
      "The": 283,
      "wit": 284,
      "##ore": 285,
      "##ch": 286,
      "##ould": 287,
      "##ook": 288,
      "##ight": 289,
      "with": 290,
      "for": 291,
      "an": 292,
      "##ay": 293,
      ",”": 294,
      "##ee": 295,
      "her": 296,
      "##her": 297,
      "##am": 298,
      "##um": 299,
      "He": 300,
      "##all": 301,
      "##pp": 302,
      "##ak": 303,
      "Ron": 304,
      "not": 305,
      "##ill": 306,
      "fr": 307,
      "##ack": 308,
      "##ard": 309,
      "##ess": 310,
      "sh": 311,
      "##erm": 312,
      "##rou": 313,
      "##led": 314,
      "##ell": 315,
      "look": 316,
      "##us": 317,
      "##ain": 318,
      "Herm": 319,
      "Hermion": 320,
      "up": 321,
      "Hermione": 322,
      "do": 323,
      "they": 324,
      "out": 325,
      "##ce": 326,
      "?”": 327,
      "##un": 328,
      "##ted": 329,
      "##ere": 330,
      "##ri": 331,
      "me": 332,
      "##ind": 333,
      "##pe": 334,
      "##ge": 335,
      "ne": 336,
      "kn": 337,
      ".”": 338,
      "them": 339,
      "but": 340,
      "##il": 341,
      "were": 342,
      "##and": 343,
      "all": 344,
      "she": 345,
      "##to": 346,
      "have": 347,
      "li": 348,
      "##ust": 349,
      "from": 350,
      "##out": 351,
      "##umb": 352,
      "##ke": 353,
      "##hing": 354,
      "go": 355,
      "we": 356,
      "##ck": 357,
      "##ome": 358,
      "##ood": 359,
      "so": 360,
      "##lo": 361,
      "##ble": 362,
      "whe": 363,
      "##hed": 364,
      "##ast": 365,
      "##one": 366,
      "##ort": 367,
      "back": 368,
      "!”": 369,
      "##umbled": 370,
      "see": 371,
      "into": 372,
      "##ff": 373,
      "##own": 374,
      "did": 375,
      "##em": 376,
      "what": 377,
      "who": 378,
      "Dumbled": 379,
      "could": 380,
      "Dumbledore": 381,
      "se": 382,
      "is": 383,
      "##ud": 384,
      "##rid": 385,
      "##ant": 386,
      "##art": 387,
      "been": 388,
      "thou": 389,
      "le": 390,
      "ab": 391,
      "ex": 392,
      "##ink": 393,
      "##est": 394,
      "We": 395,
      "no": 396,
      ",'": 397,
      "##round": 398,
      "##ide": 399,
      "##lf": 400,
      "##ist": 401,
      "ag": 402,
      "You": 403,
      "ro": 404,
      "##ra": 405,
      "##ear": 406,
      "al": 407,
      "##ous": 408,
      "##ct": 409,
      "##ong": 410,
      "##ice": 411,
      "It": 412,
      "Wh": 413,
      "##au": 414,
      "this": 415,
      "##ers": 416,
      "##ace": 417,
      "over": 418,
      "##oy": 419,
      "sp": 420,
      "##ie": 421,
      "##ley": 422,
      "there": 423,
      "would": 424,
      "##ked": 425,
      "po": 426,
      "su": 427,
      "fe": 428,
      "know": 429,
      "their": 430,
      "##ul": 431,
      "down": 432,
      "ch": 433,
      "##ig": 434,
      "about": 435,
      "##our": 436,
      "##old": 437,
      "any": 438,
      "off": 439,
      "##ther": 440,
      "like": 441,
      "##ven": 442,
      "one": 443,
      "again": 444,
      "##way": 445,
      "looked": 446,
      "##urn": 447,
      "qu": 448,
      "un": 449,
      "now": 450,
      "##ery": 451,
      "##ick": 452,
      "##ake": 453,
      "Pro": 454,
      "ve": 455,
      "##ting": 456,
      "your": 457,
      "con": 458,
      "hand": 459,
      "ey": 460,
      "##na": 461,
      "##ass": 462,
      "ever": 463,
      "Mr": 464,
      "by": 465,
      "##iz": 466,
      "around": 467,
      "##op": 468,
      "##ime": 469,
      "##ally": 470,
      "##ull": 471,
      "de": 472,
      "wor": 473,
      "just": 474,
      "think": 475,
      "got": 476,
      "##fess": 477,
      "can": 478,
      "then": 479,
      "en": 480,
      "##fessor": 481,
      "Professor": 482,
      "Hag": 483,
      "bl": 484,
      "##ark": 485,
      "too": 486,
      "Hagrid": 487,
      "if": 488,
      "sc": 489,
      "##nder": 490,
      "get": 491,
      "?'": 492,
      "##ward": 493,
      "##reat": 494,
      "when": 495,
      "##pt": 496,
      "pl": 497,
      "##ound": 498,
      "cl": 499,
      "more": 500,
      "But": 501,
      "my": 502,
      "sl": 503,
      "very": 504,
      "or": 505,
      "##ling": 506,
      "And": 507,
      "are": 508,
      "Th": 509,
      "wand": 510,
      "##bb": 511,
      "Sna": 512,
      "us": 513,
      "Snape": 514,
      "##ame": 515,
      "mo": 516,
      "head": 517,
      "##per": 518,
      "com": 519,
      "though": 520,
      "##og": 521,
      "##med": 522,
      "##self": 523,
      "tw": 524,
      "##ate": 525,
      "ll": 526,
      "##up": 527,
      "They": 528,
      "Weas": 529,
      "##ive": 530,
      "looking": 531,
      "Weasley": 532,
      "time": 533,
      "sm": 534,
      "##ft": 535,
      "ar": 536,
      "##ang": 537,
      "how": 538,
      "door": 539,
      "##pped": 540,
      "still": 541,
      "vo": 542,
      "##ved": 543,
      "tr": 544,
      "##orn": 545,
      "Pot": 546,
      "##ation": 547,
      "eyes": 548,
      "What": 549,
      "don": 550,
      "##red": 551,
      "##air": 552,
      "face": 553,
      "##ss": 554,
      "than": 555,
      "##rough": 556,
      "##ving": 557,
      "turn": 558,
      "##ius": 559,
      "gl": 560,
      "some": 561,
      "##ich": 562,
      "through": 563,
      "##fore": 564,
      "##ath": 565,
      ".'": 566,
      "##ite": 567,
      "right": 568,
      "##ap": 569,
      "br": 570,
      "##alf": 571,
      "##ily": 572,
      "other": 573,
      "going": 574,
      "##lt": 575,
      "voice": 576,
      "gr": 577,
      "which": 578,
      "##ree": 579,
      "##inn": 580,
      "##gg": 581,
      "##ious": 582,
      "##able": 583,
      "##tle": 584,
      "clo": 585,
      "sw": 586,
      "##ened": 587,
      "star": 588,
      "say": 589,
      "##other": 590,
      "before": 591,
      "fl": 592,
      "thought": 593,
      "##ave": 594,
      "Potter": 595,
      "every": 596,
      "She": 597,
      "##fter": 598,
      "Malf": 599,
      "Malfoy": 600,
      "di": 601,
      "pr": 602,
      "didn": 603,
      "man": 604,
      ",’": 605,
      "##omet": 606,
      "will": 607,
      "room": 608,
      "##wn": 609,
      "De": 610,
      "here": 611,
      "##ue": 612,
      "##ab": 613,
      "##idd": 614,
      "##ched": 615,
      "##aking": 616,
      "##ade": 617,
      "long": 618,
      "op": 619,
      "im": 620,
      "##od": 621,
      "only": 622,
      "##ile": 623,
      "te": 624,
      "wat": 625,
      "Vold": 626,
      "##emort": 627,
      "##are": 628,
      "There": 629,
      "Voldemort": 630,
      "!'": 631,
      "##king": 632,
      "Sir": 633,
      "somet": 634,
      "##ment": 635,
      "saw": 636,
      "under": 637,
      "pe": 638,
      "tell": 639,
      "##ather": 640,
      "dis": 641,
      "where": 642,
      "##side": 643,
      "##mb": 644,
      "happ": 645,
      "want": 646,
      "beh": 647,
      "way": 648,
      "##eep": 649,
      "##th": 650,
      "bec": 651,
      "after": 652,
      "##age": 653,
      "##orm": 654,
      "fir": 655,
      "##ol": 656,
      "cr": 657,
      "Ch": 658,
      "##ered": 659,
      "##izard": 660,
      "##ried": 661,
      "##ves": 662,
      "##sed": 663,
      "let": 664,
      "mu": 665,
      "app": 666,
      "lo": 667,
      "kne": 668,
      "##ond": 669,
      "##ure": 670,
      "Sirius": 671,
      "something": 672,
      "seemed": 673,
      "away": 674,
      "##thing": 675,
      "lit": 676,
      "himself": 677,
      "bet": 678,
      "Well": 679,
      "even": 680,
      "behind": 681,
      "No": 682,
      "##ea": 683,
      "asked": 684,
      "##ause": 685,
      "rem": 686,
      "##ect": 687,
      "##act": 688,
      "told": 689,
      "turned": 690,
      "never": 691,
      "year": 692,
      "come": 693,
      "Hog": 694,
      "##ks": 695,
      "##ated": 696,
      "toward": 697,
      "##ever": 698,
      "last": 699,
      "sn": 700,
      "ac": 701,
      "pro": 702,
      "poin": 703,
      "thing": 704,
      "##agic": 705,
      "mom": 706,
      "much": 707,
      "moment": 708,
      "##ance": 709,
      "try": 710,
      "##ru": 711,
      "##ire": 712,
      "##oll": 713,
      "##ach": 714,
      "##ine": 715,
      "dr": 716,
      "##ool": 717,
      "##ful": 718,
      "should": 719,
      "knew": 720,
      "##ople": 721,
      "##ching": 722,
      "##dd": 723,
      "##uff": 724,
      "once": 725,
      "##ord": 726,
      "little": 727,
      "first": 728,
      "sil": 729,
      "sec": 730,
      "##arts": 731,
      "made": 732,
      "##el": 733,
      "two": 734,
      "##ence": 735,
      "has": 736,
      "##pr": 737,
      "##owed": 738,
      "?’": 739,
      "Min": 740,
      "heard": 741,
      "left": 742,
      "Fred": 743,
      "Ne": 744,
      "##tered": 745,
      "##ped": 746,
      "##ody": 747,
      "##ont": 748,
      "##qu": 749,
      "##ents": 750,
      "wa": 751,
      "good": 752,
      "##ep": 753,
      "##les": 754,
      "##ase": 755,
      "##xt": 756,
      "##ise": 757,
      "##ish": 758,
      "##ts": 759,
      "Mrs": 760,
      "Oh": 761,
      "bot": 762,
      "felt": 763,
      "well": 764,
      "wizard": 765,
      "##warts": 766,
      "cont": 767,
      "fee": 768,
      "people": 769,
      "des": 770,
      "##ough": 771,
      "Hogwarts": 772,
      "att": 773,
      "##ber": 774,
      "!’": 775,
      "##itch": 776,
      "ho": 777,
      "##less": 778,
      "dark": 779,
      "##ady": 780,
      "pre": 781,
      "really": 782,
      "its": 783,
      "pull": 784,
      "might": 785,
      "flo": 786,
      "tal": 787,
      "##ised": 788,
      "##ross": 789,
      "##udd": 790,
      "##ple": 791,
      "##ies": 792,
      "##room": 793,
      "wal": 794,
      "##ions": 795,
      "##ory": 796,
      "arm": 797,
      "##ock": 798,
      "Mc": 799,
      "Lup": 800,
      "need": 801,
      "Lupin": 802,
      "##een": 803,
      "Do": 804,
      "front": 805,
      "am": 806,
      "##inny": 807,
      "wind": 808,
      "In": 809,
      "##ose": 810,
      "##ors": 811,
      "##ouse": 812,
      "sure": 813,
      "##ity": 814,
      "Qu": 815,
      "che": 816,
      "##cy": 817,
      "##hen": 818,
      "must": 819,
      "##orge": 820,
      "open": 821,
      "Ge": 822,
      "old": 823,
      "em": 824,
      "##ost": 825,
      "George": 826,
      "##vill": 827,
      "##oud": 828,
      "because": 829,
      "Nevill": 830,
      "wr": 831,
      "##fe": 832,
      "Ginny": 833,
      "Neville": 834,
      "St": 835,
      "##aring": 836,
      "##arge": 837,
      "mean": 838,
      "##ung": 839,
      "came": 840,
      "##ently": 841,
      "##ced": 842,
      "spe": 843,
      "##ared": 844,
      "##uck": 845,
      "feet": 846,
      "##me": 847,
      "##ied": 848,
      "hur": 849,
      "put": 850,
      "pass": 851,
      "bel": 852,
      "##pl": 853,
      "##ons": 854,
      "##ream": 855,
      "McG": 856,
      "own": 857,
      "gi": 858,
      "##agall": 859,
      "##onagall": 860,
      "McGonagall": 861,
      "end": 862,
      "Bl": 863,
      "##unn": 864,
      "find": 865,
      "cle": 866,
      "great": 867,
      "sur": 868,
      "ter": 869,
      "day": 870,
      "##eah": 871,
      "took": 872,
      "##oun": 873,
      "##rew": 874,
      "##anted": 875,
      "—”": 876,
      "bit": 877,
      "anything": 878,
      "That": 879,
      "supp": 880,
      "few": 881,
      "stand": 882,
      "bed": 883,
      "##ightly": 884,
      "take": 885,
      "hard": 886,
      "hel": 887,
      "near": 888,
      "cour": 889,
      "trying": 890,
      "make": 891,
      "table": 892,
      "##chool": 893,
      "How": 894,
      "##here": 895,
      "##ished": 896,
      "So": 897,
      "##ugg": 898,
      "##ater": 899,
      "##ows": 900,
      "##arm": 901,
      "##ffind": 902,
      "Gry": 903,
      "hair": 904,
      "##ering": 905,
      "el": 906,
      "Gryffind": 907,
      "went": 908,
      ".’": 909,
      "floor": 910,
      "second": 911,
      "##hes": 912,
      "cur": 913,
      "##ank": 914,
      "##ern": 915,
      "word": 916,
      "another": 917,
      "next": 918,
      "##ridge": 919,
      "…”": 920,
      "hands": 921,
      "side": 922,
      "keep": 923,
      "##oot": 924,
      "night": 925,
      "school": 926,
      "boy": 927,
      "black": 928,
      "str": 929,
      "new": 930,
      "light": 931,
      "inside": 932,
      "ra": 933,
      "large": 934,
      "If": 935,
      "Death": 936,
      "sound": 937,
      "##ey": 938,
      "while": 939,
      "##iously": 940,
      "three": 941,
      "##ully": 942,
      "Umb": 943,
      "call": 944,
      "##iet": 945,
      "whis": 946,
      "##cle": 947,
      "##body": 948,
      "Umbridge": 949,
      "found": 950,
      "##owing": 951,
      "lau": 952,
      "##ip": 953,
      "par": 954,
      "house": 955,
      "set": 956,
      ".…": 957,
      "loud": 958,
      "##igh": 959,
      "Yes": 960,
      "per": 961,
      "##acher": 962,
      "On": 963,
      "our": 964,
      "ret": 965,
      "##az": 966,
      "course": 967,
      "sit": 968,
      "##get": 969,
      "seen": 970,
      "##ary": 971,
      "##istry": 972,
      "An": 973,
      "jo": 974,
      "Un": 975,
      "gave": 976,
      "nothing": 977,
      "hear": 978,
      "Ministry": 979,
      "ground": 980,
      "why": 981,
      "whisper": 982,
      "##aw": 983,
      "help": 984,
      "Gryffindor": 985,
      "##te": 986,
      "##app": 987,
      "##be": 988,
      "stood": 989,
      "sk": 990,
      "##ild": 991,
      "air": 992,
      "##ail": 993,
      "half": 994,
      "fin": 995,
      "##ix": 996,
      "##ating": 997,
      "##udden": 998,
      "ear": 999,
      "real": 1000,
      "##airs": 1001,
      "Mad": 1002,
      "##iss": 1003,
      "book": 1004,
      "pulled": 1005,
      "sudden": 1006,
      "As": 1007,
      "mat": 1008,
      "His": 1009,
      "Per": 1010,
      "wall": 1011,
      "##ign": 1012,
      "Then": 1013,
      "##os": 1014,
      "upon": 1015,
      "Yeah": 1016,
      "co": 1017,
      "##av": 1018,
      "cast": 1019,
      "wanted": 1020,
      "##ached": 1021,
      "##oody": 1022,
      "res": 1023,
      "##ement": 1024,
      "sat": 1025,
      "##ness": 1026,
      "across": 1027,
      "-'": 1028,
      "##ower": 1029,
      "being": 1030,
      "##ans": 1031,
      "beg": 1032,
      "##bby": 1033,
      "each": 1034,
      "quick": 1035,
      "cor": 1036,
      "fell": 1037,
      "##udge": 1038,
      "wait": 1039,
      "##ib": 1040,
      "##lin": 1041,
      "place": 1042,
      "both": 1043,
      "Ar": 1044,
      "##ways": 1045,
      "foll": 1046,
      "mind": 1047,
      "wo": 1048,
      "wasn": 1049,
      "stud": 1050,
      "##ump": 1051,
      "most": 1052,
      "##unt": 1053,
      "##ible": 1054,
      "without": 1055,
      "does": 1056,
      "quiet": 1057,
      "imp": 1058,
      "done": 1059,
      "along": 1060,
      "years": 1061,
      "Dark": 1062,
      "##fully": 1063,
      "couldn": 1064,
      "car": 1065,
      "class": 1066,
      "small": 1067,
      "magic": 1068,
      "##ister": 1069,
      "happened": 1070,
      "Hall": 1071,
      "against": 1072,
      "quite": 1073,
      "Mugg": 1074,
      "mout": 1075,
      "##tain": 1076,
      "inter": 1077,
      "ang": 1078,
      "doing": 1079,
      "##ening": 1080,
      "ple": 1081,
      "better": 1082,
      "fire": 1083,
      "##aster": 1084,
      "ob": 1085,
      "##iling": 1086,
      "Who": 1087,
      "unt": 1088,
      "gre": 1089,
      "Sl": 1090,
      "##cted": 1091,
      "Moody": 1092,
      "Vern": 1093,
      "id": 1094,
      "##ric": 1095,
      "breat": 1096,
      "Vernon": 1097,
      "enough": 1098,
      "pa": 1099,
      "##press": 1100,
      "else": 1101,
      "##eh": 1102,
      "##ying": 1103,
      "Not": 1104,
      "bo": 1105,
      "Magic": 1106,
      "##eared": 1107,
      "fam": 1108,
      "kill": 1109,
      "##bes": 1110,
      "eye": 1111,
      "less": 1112,
      "min": 1113,
      "##ized": 1114,
      "This": 1115,
      "mouth": 1116,
      "All": 1117,
      "##ready": 1118,
      "Pet": 1119,
      "hold": 1120,
      "mut": 1121,
      "##li": 1122,
      "cau": 1123,
      "##ret": 1124,
      "##urs": 1125,
      "##amp": 1126,
      "##ept": 1127,
      "already": 1128,
      "yell": 1129,
      "##ings": 1130,
      "For": 1131,
      "My": 1132,
      "Sly": 1133,
      "Fudge": 1134,
      "robes": 1135,
      "remem": 1136,
      "walked": 1137,
      "##ten": 1138,
      "Slyther": 1139,
      "##iend": 1140,
      "##ince": 1141,
      "##reak": 1142,
      "Slytherin": 1143,
      "gold": 1144,
      "##ia": 1145,
      "friend": 1146,
      "staring": 1147,
      "belie": 1148,
      "past": 1149,
      "part": 1150,
      "Uncle": 1151,
      "scar": 1152,
      "Dobby": 1153,
      "##awn": 1154,
      "##ined": 1155,
      "read": 1156,
      "diff": 1157,
      "##ng": 1158,
      "forward": 1159,
      "##iddle": 1160,
      "ste": 1161,
      "care": 1162,
      "top": 1163,
      "gone": 1164,
      "those": 1165,
      "##ty": 1166,
      "##anger": 1167,
      "##und": 1168,
      "Gr": 1169,
      "rather": 1170,
      "##ably": 1171,
      "##ween": 1172,
      "##pping": 1173,
      "won": 1174,
      "lea": 1175,
      "whispered": 1176,
      "##ained": 1177,
      "return": 1178,
      "##ange": 1179,
      "between": 1180,
      "standing": 1181,
      "these": 1182,
      "suddenly": 1183,
      "rest": 1184,
      "##ged": 1185,
      "##der": 1186,
      "inc": 1187,
      "glass": 1188,
      "give": 1189,
      "until": 1190,
      "inst": 1191,
      "##dded": 1192,
      "##ph": 1193,
      "##most": 1194,
      "cold": 1195,
      "sto": 1196,
      "began": 1197,
      "tre": 1198,
      "##ither": 1199,
      "##udley": 1200,
      "full": 1201,
      "##ls": 1202,
      "close": 1203,
      "many": 1204,
      "opened": 1205,
      "When": 1206,
      "list": 1207,
      "rec": 1208,
      "towards": 1209,
      "tried": 1210,
      "window": 1211,
      "Be": 1212,
      "bro": 1213,
      "##bo": 1214,
      "onto": 1215,
      "slightly": 1216,
      "Slu": 1217,
      "Dudley": 1218,
      "Why": 1219,
      "yet": 1220,
      "##idditch": 1221,
      "exc": 1222,
      "##igg": 1223,
      "minut": 1224,
      "##ens": 1225,
      "Quidditch": 1226,
      "sitting": 1227,
      "quickly": 1228,
      "Black": 1229,
      "things": 1230,
      "talking": 1231,
      "dro": 1232,
      "raised": 1233,
      "wonder": 1234,
      "dist": 1235,
      "##cc": 1236,
      "same": 1237,
      "##pect": 1238,
      "start": 1239,
      "corrid": 1240,
      "##row": 1241,
      "##ghorn": 1242,
      "bad": 1243,
      "hor": 1244,
      "##tering": 1245,
      "Percy": 1246,
      "Lord": 1247,
      "office": 1248,
      "use": 1249,
      "reached": 1250,
      "Se": 1251,
      "feeling": 1252,
      "Slughorn": 1253,
      "##very": 1254,
      "castle": 1255,
      "ad": 1256,
      "##arn": 1257,
      "comm": 1258,
      "##ention": 1259,
      "started": 1260,
      "##ames": 1261,
      "Now": 1262,
      "##ron": 1263,
      "ow": 1264,
      "clear": 1265,
      "##icul": 1266,
      "##raw": 1267,
      "##day": 1268,
      "wouldn": 1269,
      "able": 1270,
      "##cket": 1271,
      "underst": 1272,
      "gir": 1273,
      "four": 1274,
      "##head": 1275,
      "##gether": 1276,
      "high": 1277,
      "##vis": 1278,
      "##sh": 1279,
      "##outed": 1280,
      "name": 1281,
      "##aken": 1282,
      "almost": 1283,
      "dead": 1284,
      "foot": 1285,
      "pain": 1286,
      "slow": 1287,
      "always": 1288,
      "shouted": 1289,
      "ser": 1290,
      "##lves": 1291,
      "anyone": 1292,
      "yeh": 1293,
      "##aters": 1294,
      "work": 1295,
      "fing": 1296,
      "##part": 1297,
      "coming": 1298,
      "called": 1299,
      "together": 1300,
      "##osed": 1301,
      "usu": 1302,
      "##ove": 1303,
      "##owd": 1304,
      "ind": 1305,
      "fur": 1306,
      "father": 1307,
      "dec": 1308,
      "--": 1309,
      "##ately": 1310,
      "later": 1311,
      "red": 1312,
      "–’": 1313,
      "##oke": 1314,
      "broom": 1315,
      "hour": 1316,
      "##rac": 1317,
      "drag": 1318,
      "Er": 1319,
      "bes": 1320,
      "##ene": 1321,
      "Don": 1322,
      "sle": 1323,
      "pers": 1324,
      "contin": 1325,
      "##form": 1326,
      "##used": 1327,
      "stared": 1328,
      "however": 1329,
      "far": 1330,
      "##sw": 1331,
      "##ured": 1332,
      "scream": 1333,
      "gu": 1334,
      "mar": 1335,
      "stra": 1336,
      "poss": 1337,
      "watching": 1338,
      "sight": 1339,
      "##unk": 1340,
      "crowd": 1341,
      "feel": 1342,
      "quietly": 1343,
      "students": 1344,
      "fac": 1345,
      "##ited": 1346,
      "det": 1347,
      "sign": 1348,
      "##ci": 1349,
      "##rabb": 1350,
      "Sc": 1351,
      "lot": 1352,
      "…’": 1353,
      "##ued": 1354,
      "whole": 1355,
      "leg": 1356,
      "aw": 1357,
      "mother": 1358,
      "vis": 1359,
      "##ird": 1360,
      "Eaters": 1361,
      "thr": 1362,
      "beside": 1363,
      "deep": 1364,
      "squ": 1365,
      "##eps": 1366,
      "wee": 1367,
      "##orry": 1368,
      "straight": 1369,
      "##ense": 1370,
      "stop": 1371,
      "ask": 1372,
      "outside": 1373,
      "letter": 1374,
      "empt": 1375,
      "Al": 1376,
      "##ict": 1377,
      "##ures": 1378,
      "##aps": 1379,
      "low": 1380,
      "everything": 1381,
      "Lun": 1382,
      "##iled": 1383,
      "Muggle": 1384,
      "##tr": 1385,
      "heart": 1386,
      "green": 1387,
      "##umm": 1388,
      "everyone": 1389,
      "##..": 1390,
      "answ": 1391,
      "##rie": 1392,
      "caught": 1393,
      "Luna": 1394,
      "cat": 1395,
      "corn": 1396,
      "##ply": 1397,
      "idea": 1398,
      "Kn": 1399,
      "best": 1400,
      "kept": 1401,
      "sir": 1402,
      "##fied": 1403,
      "##rect": 1404,
      "##anc": 1405,
      "##icked": 1406,
      "life": 1407,
      "move": 1408,
      "##imes": 1409,
      "whether": 1410,
      "isn": 1411,
      "believe": 1412,
      "passed": 1413,
      "words": 1414,
      "stopped": 1415,
      "home": 1416,
      "saying": 1417,
      "Crou": 1418,
      "act": 1419,
      "bur": 1420,
      "mon": 1421,
      "##ER": 1422,
      "supposed": 1423,
      "slowly": 1424,
      "##ith": 1425,
      "yes": 1426,
      "acc": 1427,
      "hit": 1428,
      "Head": 1429,
      "getting": 1430,
      "hope": 1431,
      "Madam": 1432,
      "muttered": 1433,
      "At": 1434,
      "remember": 1435,
      "Crouch": 1436,
      "…'": 1437,
      "haven": 1438,
      "seem": 1439,
      "sever": 1440,
      "someone": 1441,
      "-”": 1442,
      "Clo": 1443,
      "wizards": 1444,
      "break": 1445,
      "##ipped": 1446,
      "##essed": 1447,
      "breath": 1448,
      "pot": 1449,
      "##selves": 1450,
      "Ced": 1451,
      "Sh": 1452,
      "##orc": 1453,
      "play": 1454,
      "Sn": 1455,
      "taken": 1456,
      "short": 1457,
      "##oc": 1458,
      "white": 1459,
      "Or": 1460,
      "##br": 1461,
      "##acked": 1462,
      "##rum": 1463,
      "##fort": 1464,
      "stay": 1465,
      "Cedric": 1466,
      "##rible": 1467,
      "fall": 1468,
      "##light": 1469,
      "##where": 1470,
      "rel": 1471,
      "##cept": 1472,
      "leave": 1473,
      "laugh": 1474,
      "sort": 1475,
      "##iv": 1476,
      "##ject": 1477,
      "stone": 1478,
      "moved": 1479,
      "Aunt": 1480,
      "##aged": 1481,
      "holding": 1482,
      "Kre": 1483,
      "##orning": 1484,
      "disapp": 1485,
      "Kreacher": 1486,
      "##ub": 1487,
      "##phe": 1488,
      "##sc": 1489,
      "##ati": 1490,
      "nose": 1491,
      "##ursley": 1492,
      "corridor": 1493,
      "understand": 1494,
      "Dursley": 1495,
      "making": 1496,
      "##ier": 1497,
      "since": 1498,
      "##ging": 1499,
      "##vered": 1500,
      "quest": 1501,
      "Cloak": 1502,
      "Bill": 1503,
      "bus": 1504,
      "taking": 1505,
      "##erv": 1506,
      "hadn": 1507,
      "exam": 1508,
      "appeared": 1509,
      "talk": 1510,
      "loudly": 1511,
      "empty": 1512,
      "round": 1513,
      "shoulder": 1514,
      "Pr": 1515,
      "##ins": 1516,
      "##ided": 1517,
      "silence": 1518,
      "Re": 1519,
      "wearing": 1520,
      "alone": 1521,
      "##lit": 1522,
      "teacher": 1523,
      "minutes": 1524,
      "Fil": 1525,
      "##iding": 1526,
      "##ility": 1527,
      "ext": 1528,
      "point": 1529,
      "pointed": 1530,
      "surpr": 1531,
      "Ex": 1532,
      "morning": 1533,
      "##rel": 1534,
      "##anks": 1535,
      "spell": 1536,
      "arri": 1537,
      "silver": 1538,
      "##haps": 1539,
      "##ushed": 1540,
      "followed": 1541,
      "##rave": 1542,
      "blood": 1543,
      "arms": 1544,
      "Riddle": 1545,
      "power": 1546,
      "...": 1547,
      "hat": 1548,
      "disc": 1549,
      "Petun": 1550,
      "stuff": 1551,
      "ce": 1552,
      "ca": 1553,
      "##man": 1554,
      "##ken": 1555,
      "pointing": 1556,
      "Petunia": 1557,
      "Where": 1558,
      "bag": 1559,
      "cloak": 1560,
      "closed": 1561,
      "##fect": 1562,
      "##iny": 1563,
      "watched": 1564,
      "matter": 1565,
      "##ror": 1566,
      "##ously": 1567,
      "Fle": 1568,
      "##itc": 1569,
      "meet": 1570,
      "spot": 1571,
      "team": 1572,
      "fly": 1573,
      "kind": 1574,
      "comple": 1575,
      "Minister": 1576,
      "others": 1577,
      "##anced": 1578,
      "##actly": 1579,
      "desk": 1580,
      "Just": 1581,
      "fle": 1582,
      "##ift": 1583,
      "##ertain": 1584,
      "common": 1585,
      "chair": 1586,
      "hurried": 1587,
      "##pression": 1588,
      "pat": 1589,
      "thinking": 1590,
      "water": 1591,
      "Filch": 1592,
      "corner": 1593,
      "ref": 1594,
      "such": 1595,
      "several": 1596,
      "fast": 1597,
      "having": 1598,
      "##ementors": 1599,
      "##uring": 1600,
      "notic": 1601,
      "Every": 1602,
      "##read": 1603,
      "##antly": 1604,
      "##roll": 1605,
      "##oyle": 1606,
      "Did": 1607,
      "elf": 1608,
      "##ash": 1609,
      "Come": 1610,
      "shaking": 1611,
      "doesn": 1612,
      "sent": 1613,
      "ten": 1614,
      "hall": 1615,
      "ins": 1616,
      "##imb": 1617,
      "usual": 1618,
      "body": 1619,
      "mis": 1620,
      "##so": 1621,
      "family": 1622,
      "met": 1623,
      "##nding": 1624,
      "##ashed": 1625,
      "##vent": 1626,
      "seat": 1627,
      "person": 1628,
      "unc": 1629,
      "books": 1630,
      "fact": 1631,
      "lay": 1632,
      "mist": 1633,
      "##rey": 1634,
      "speak": 1635,
      "bu": 1636,
      "thick": 1637,
      "attem": 1638,
      "Ton": 1639,
      "danger": 1640,
      "may": 1641,
      "##chment": 1642,
      "direct": 1643,
      "given": 1644,
      "yelled": 1645,
      "sorry": 1646,
      "##cl": 1647,
      "##ased": 1648,
      "held": 1649,
      "heav": 1650,
      "used": 1651,
      "##rait": 1652,
      "pocket": 1653,
      "watch": 1654,
      "##unning": 1655,
      "parchment": 1656,
      "gaz": 1657,
      "trou": 1658,
      "neck": 1659,
      "Lock": 1660,
      "dear": 1661,
      "##ising": 1662,
      "mem": 1663,
      "##idden": 1664,
      "telling": 1665,
      "wrong": 1666,
      "free": 1667,
      "##ps": 1668,
      "conf": 1669,
      "##ibility": 1670,
      "##itchen": 1671,
      "TH": 1672,
      "kitchen": 1673,
      "##aven": 1674,
      "Krum": 1675,
      "ed": 1676,
      "sub": 1677,
      "def": 1678,
      "prot": 1679,
      "Bag": 1680,
      "Bell": 1681,
      "Look": 1682,
      "port": 1683,
      "##rying": 1684,
      "expl": 1685,
      "lost": 1686,
      "owl": 1687,
      "continued": 1688,
      "added": 1689,
      "cup": 1690,
      "coun": 1691,
      "##cked": 1692,
      "##trance": 1693,
      "burst": 1694,
      "Great": 1695,
      "fight": 1696,
      "odd": 1697,
      "sim": 1698,
      "##hart": 1699,
      "##ition": 1700,
      "Trel": 1701,
      "five": 1702,
      "mur": 1703,
      "van": 1704,
      "##ping": 1705,
      "##awney": 1706,
      "Trelawney": 1707,
      "Sp": 1708,
      "moving": 1709,
      "##rugg": 1710,
      "##sing": 1711,
      "fingers": 1712,
      "Lockhart": 1713,
      "One": 1714,
      "##ork": 1715,
      "##aced": 1716,
      "forg": 1717,
      "##ize": 1718,
      "shut": 1719,
      "complete": 1720,
      "dou": 1721,
      "numb": 1722,
      "##aming": 1723,
      "expect": 1724,
      "Fleur": 1725,
      "##que": 1726,
      "smile": 1727,
      "answer": 1728,
      "either": 1729,
      "##tail": 1730,
      "##blin": 1731,
      ".…”": 1732,
      "##undred": 1733,
      "Tonks": 1734,
      "exp": 1735,
      "died": 1736,
      "##pected": 1737,
      "exactly": 1738,
      "Drac": 1739,
      "themselves": 1740,
      "differ": 1741,
      "##abb": 1742,
      "##case": 1743,
      "days": 1744,
      "Draco": 1745,
      "Goyle": 1746,
      "dream": 1747,
      "ru": 1748,
      "ran": 1749,
      "##ored": 1750,
      "Good": 1751,
      "hundred": 1752,
      "tear": 1753,
      "##ann": 1754,
      "shar": 1755,
      "Know": 1756,
      "Crabb": 1757,
      "##ster": 1758,
      "soon": 1759,
      "roll": 1760,
      "Horc": 1761,
      "fore": 1762,
      "##ining": 1763,
      "##nded": 1764,
      "bell": 1765,
      "young": 1766,
      "##rux": 1767,
      "girl": 1768,
      "Crabbe": 1769,
      "Horcrux": 1770,
      "##ually": 1771,
      "##tom": 1772,
      "##ches": 1773,
      "##sp": 1774,
      "witch": 1775,
      "waiting": 1776,
      "bene": 1777,
      "land": 1778,
      "tiny": 1779,
      "pres": 1780,
      "nearly": 1781,
      "Bagman": 1782,
      "portrait": 1783,
      "spoke": 1784,
      "death": 1785,
      "##anged": 1786,
      "returned": 1787,
      "tou": 1788,
      "##ically": 1789,
      "shook": 1790,
      "shall": 1791,
      "##ead": 1792,
      "##vers": 1793,
      "turning": 1794,
      "Charm": 1795,
      "sleep": 1796,
      "pur": 1797,
      "##aff": 1798,
      "##ho": 1799,
      "stair": 1800,
      "knock": 1801,
      "least": 1802,
      "snake": 1803,
      "darkness": 1804,
      "dropped": 1805,
      "tri": 1806,
      "##ingly": 1807,
      "above": 1808,
      "train": 1809,
      "parents": 1810,
      "please": 1811,
      "##ze": 1812,
      "noise": 1813,
      "stairs": 1814,
      "ago": 1815,
      "##ively": 1816,
      "##inning": 1817,
      "noticed": 1818,
      "Cr": 1819,
      "Go": 1820,
      "##gn": 1821,
      "##stairs": 1822,
      "Dursleys": 1823,
      "##ested": 1824,
      "also": 1825,
      "appro": 1826,
      "run": 1827,
      "sna": 1828,
      "steps": 1829,
      "gas": 1830,
      "times": 1831,
      "##uc": 1832,
      "##ets": 1833,
      "##agg": 1834,
      "##umped": 1835,
      "except": 1836,
      "entered": 1837,
      "##ax": 1838,
      "##inging": 1839,
      "clut": 1840,
      "comp": 1841,
      "hurt": 1842,
      "giant": 1843,
      "lying": 1844,
      "wide": 1845,
      "goblin": 1846,
      "##ourn": 1847,
      "Of": 1848,
      "##upid": 1849,
      "ceiling": 1850,
      "beneath": 1851,
      "Let": 1852,
      "##uth": 1853,
      "repe": 1854,
      "##ckon": 1855,
      "golden": 1856,
      "blo": 1857,
      "##mas": 1858,
      "reg": 1859,
      "##akes": 1860,
      "doors": 1861,
      "Some": 1862,
      "bar": 1863,
      "burn": 1864,
      "carry": 1865,
      "##ald": 1866,
      "##ason": 1867,
      "rep": 1868,
      "shock": 1869,
      "soft": 1870,
      "##arely": 1871,
      "finished": 1872,
      "draw": 1873,
      "nerv": 1874,
      "##ught": 1875,
      "##eed": 1876,
      "##enty": 1877,
      "chest": 1878,
      "leaving": 1879,
      "##partment": 1880,
      "Her": 1881,
      "sus": 1882,
      "summ": 1883,
      "##oon": 1884,
      "##if": 1885,
      "##iff": 1886,
      "##rist": 1887,
      "##wig": 1888,
      "whose": 1889,
      "Cho": 1890,
      "writ": 1891,
      "With": 1892,
      "case": 1893,
      "cross": 1894,
      "wom": 1895,
      "##ination": 1896,
      "Dean": 1897,
      "##abin": 1898,
      "grounds": 1899,
      "ears": 1900,
      "difficul": 1901,
      "Hed": 1902,
      "##rod": 1903,
      "##amed": 1904,
      "pract": 1905,
      "friends": 1906,
      "##board": 1907,
      "ev": 1908,
      "##OU": 1909,
      "stupid": 1910,
      "##ular": 1911,
      "trouble": 1912,
      "##ristmas": 1913,
      "coll": 1914,
      "ill": 1915,
      "mid": 1916,
      "opp": 1917,
      "##aned": 1918,
      "magical": 1919,
      "question": 1920,
      "staircase": 1921,
      "Hedwig": 1922,
      "threw": 1923,
      "Christmas": 1924,
      "##visibility": 1925,
      "mad": 1926,
      "##illed": 1927,
      "##like": 1928,
      "arrived": 1929,
      "esc": 1930,
      "##stick": 1931,
      "##rily": 1932,
      "managed": 1933,
      "flew": 1934,
      "legs": 1935,
      "Sever": 1936,
      "##ress": 1937,
      "##ghter": 1938,
      "chance": 1939,
      "swe": 1940,
      "glasses": 1941,
      "Fire": 1942,
      "Is": 1943,
      "ton": 1944,
      "##wo": 1945,
      "##ages": 1946,
      "cons": 1947,
      "dri": 1948,
      "er": 1949,
      "##atri": 1950,
      "looks": 1951,
      "##rified": 1952,
      "##ief": 1953,
      "Az": 1954,
      "Worm": 1955,
      "cent": 1956,
      "running": 1957,
      "##kab": 1958,
      "##ush": 1959,
      "Bellatri": 1960,
      "Azkab": 1961,
      "Bellatrix": 1962,
      "Azkaban": 1963,
      "attack": 1964,
      "creat": 1965,
      "eas": 1966,
      "tent": 1967,
      "stre": 1968,
      "enorm": 1969,
      "match": 1970,
      "import": 1971,
      "Order": 1972,
      "##ison": 1973,
      "##ishing": 1974,
      "expression": 1975,
      "spr": 1976,
      "evening": 1977,
      "windows": 1978,
      "Wormtail": 1979,
      "pict": 1980,
      "##alm": 1981,
      "says": 1982,
      "became": 1983,
      "perhaps": 1984,
      "walls": 1985,
      "Alb": 1986,
      "forgot": 1987,
      "occ": 1988,
      "pie": 1989,
      "longer": 1990,
      "Wood": 1991,
      "certain": 1992,
      "eff": 1993,
      "son": 1994,
      "warn": 1995,
      "nobody": 1996,
      "world": 1997,
      "climb": 1998,
      "glanced": 1999,
      "potion": 2000,
      "vanished": 2001,
      "See": 2002,
      "##vo": 2003,
      "##ipp": 2004,
      "within": 2005,
      "known": 2006,
      "seized": 2007,
      "trunk": 2008,
      "sque": 2009,
      "conc": 2010,
      "woman": 2011,
      "fift": 2012,
      "##let": 2013,
      "##aked": 2014,
      "meant": 2015,
      "entrance": 2016,
      "brother": 2017,
      "number": 2018,
      "Ag": 2019,
      "hop": 2020,
      "##ug": 2021,
      "##ye": 2022,
      "##work": 2023,
      "ready": 2024,
      "Invisibility": 2025,
      "emer": 2026,
      "##int": 2027,
      "enormous": 2028,
      "Par": 2029,
      "##bably": 2030,
      "##ought": 2031,
      "##ogn": 2032,
      "bright": 2033,
      "walking": 2034,
      "luck": 2035,
      "##als": 2036,
      "herself": 2037,
      "##iew": 2038,
      "sword": 2039,
      "Dementors": 2040,
      "cut": 2041,
      "##ser": 2042,
      "##inted": 2043,
      "##ask": 2044,
      "pulling": 2045,
      "finally": 2046,
      "Fr": 2047,
      "James": 2048,
      "fear": 2049,
      "ign": 2050,
      "##oom": 2051,
      "inv": 2052,
      "safe": 2053,
      "lead": 2054,
      "knows": 2055,
      "Prophe": 2056,
      "Le": 2057,
      "col": 2058,
      "fig": 2059,
      "##off": 2060,
      "##kes": 2061,
      "thin": 2062,
      "hang": 2063,
      "##ield": 2064,
      "angry": 2065,
      "Wizard": 2066,
      "ass": 2067,
      "shad": 2068,
      "##ations": 2069,
      "happy": 2070,
      "repeated": 2071,
      "Mar": 2072,
      "sun": 2073,
      "##inking": 2074,
      "wands": 2075,
      "below": 2076,
      "killed": 2077,
      "broke": 2078,
      "Albus": 2079,
      "wood": 2080,
      "##eng": 2081,
      "##amus": 2082,
      "##aining": 2083,
      "angrily": 2084,
      "pale": 2085,
      "listening": 2086,
      "Seamus": 2087,
      "completely": 2088,
      "Are": 2089,
      "cir": 2090,
      "anyway": 2091,
      "blue": 2092,
      "##ection": 2093,
      "##unny": 2094,
      "Any": 2095,
      "job": 2096,
      "recogn": 2097,
      "flying": 2098,
      "##IN": 2099,
      "true": 2100,
      "broken": 2101,
      "week": 2102,
      "tonight": 2103,
      "bat": 2104,
      "mere": 2105,
      "miss": 2106,
      "##TER": 2107,
      "thro": 2108,
      "##rought": 2109,
      "flat": 2110,
      "Arts": 2111,
      "##aning": 2112,
      "##str": 2113,
      "nodded": 2114,
      "heads": 2115,
      "smiling": 2116,
      "clearly": 2117,
      "memory": 2118,
      "Raven": 2119,
      "sne": 2120,
      "suppose": 2121,
      "lesson": 2122,
      "instead": 2123,
      "egg": 2124,
      "mention": 2125,
      "##HA": 2126,
      "##arently": 2127,
      "##orth": 2128,
      "##inky": 2129,
      "##icking": 2130,
      "##inner": 2131,
      "seconds": 2132,
      "##claw": 2133,
      "After": 2134,
      "Eater": 2135,
      "Kark": 2136,
      "##ghed": 2137,
      "##bered": 2138,
      "##cho": 2139,
      "show": 2140,
      "##ault": 2141,
      "Def": 2142,
      "trees": 2143,
      "visit": 2144,
      "month": 2145,
      "Ravenclaw": 2146,
      "Ah": 2147,
      "cou": 2148,
      "int": 2149,
      "reason": 2150,
      "##aled": 2151,
      "backward": 2152,
      "Muggles": 2153,
      "Snitch": 2154,
      "Can": 2155,
      "ball": 2156,
      "barely": 2157,
      "##isk": 2158,
      "##ices": 2159,
      "Magical": 2160,
      "THE": 2161,
      "Prophet": 2162,
      "echo": 2163,
      "##ger": 2164,
      "##blet": 2165,
      "dragon": 2166,
      "stret": 2167,
      "shout": 2168,
      "##riv": 2169,
      "Pat": 2170,
      "gle": 2171,
      "led": 2172,
      "ought": 2173,
      "##ike": 2174,
      "##ider": 2175,
      "##esh": 2176,
      "reckon": 2177,
      "forced": 2178,
      "learn": 2179,
      "pair": 2180,
      "six": 2181,
      "##master": 2182,
      "##using": 2183,
      "imag": 2184,
      "horrible": 2185,
      "doub": 2186,
      "Pee": 2187,
      "ahead": 2188,
      "story": 2189,
      "giving": 2190,
      "tears": 2191,
      "mir": 2192,
      "##iness": 2193,
      "##ldron": 2194,
      "##eeper": 2195,
      "shot": 2196,
      "Your": 2197,
      "clock": 2198,
      "check": 2199,
      "strange": 2200,
      "sky": 2201,
      "different": 2202,
      "snapped": 2203,
      "eag": 2204,
      "hum": 2205,
      "hidden": 2206,
      "middle": 2207,
      "wing": 2208,
      "##orted": 2209,
      "quill": 2210,
      "box": 2211,
      "stepped": 2212,
      "hours": 2213,
      "Right": 2214,
      "Tr": 2215,
      "lake": 2216,
      "pun": 2217,
      "##EN": 2218,
      "##isted": 2219,
      "##imm": 2220,
      "blank": 2221,
      "happen": 2222,
      "Sec": 2223,
      "##ancing": 2224,
      "App": 2225,
      "big": 2226,
      "dorm": 2227,
      "–“": 2228,
      "third": 2229,
      "anx": 2230,
      "##elled": 2231,
      "##lessly": 2232,
      "important": 2233,
      "Peeves": 2234,
      "May": 2235,
      "To": 2236,
      "##arr": 2237,
      "form": 2238,
      "##amber": 2239,
      "scr": 2240,
      "covered": 2241,
      "Crook": 2242,
      "Winky": 2243,
      "rat": 2244,
      "sing": 2245,
      "##ial": 2246,
      "##aroff": 2247,
      "##atur": 2248,
      "inform": 2249,
      "##aped": 2250,
      "prete": 2251,
      "##shanks": 2252,
      "summer": 2253,
      "Again": 2254,
      "Karkaroff": 2255,
      "Crookshanks": 2256,
      "cabin": 2257,
      "gh": 2258,
      "yeah": 2259,
      "….": 2260,
      "##ates": 2261,
      "##itted": 2262,
      "##omf": 2263,
      "whom": 2264,
      "trans": 2265,
      "truth": 2266,
      "points": 2267,
      "deser": 2268,
      "Dad": 2269,
      "Rit": 2270,
      "Very": 2271,
      "cop": 2272,
      "late": 2273,
      "yourself": 2274,
      "probably": 2275,
      "dormit": 2276,
      "Rita": 2277,
      "brought": 2278,
      "fine": 2279,
      "gri": 2280,
      "master": 2281,
      "pushed": 2282,
      "##oul": 2283,
      "strugg": 2284,
      "champ": 2285,
      "##uffle": 2286,
      "dangerous": 2287,
      "Pomf": 2288,
      "during": 2289,
      "##rit": 2290,
      "##ta": 2291,
      "##ired": 2292,
      "##ments": 2293,
      "silent": 2294,
      "excited": 2295,
      "carrying": 2296,
      "Pomfrey": 2297,
      "tem": 2298,
      "##rim": 2299,
      "##ape": 2300,
      "##rell": 2301,
      "##ane": 2302,
      "stom": 2303,
      "##vering": 2304,
      "shrie": 2305,
      "roared": 2306,
      "sounded": 2307,
      "##ixed": 2308,
      "adm": 2309,
      "add": 2310,
      "fright": 2311,
      "rose": 2312,
      "##bbing": 2313,
      "bottle": 2314,
      "desper": 2315,
      "hardly": 2316,
      "Arth": 2317,
      "possible": 2318,
      "cried": 2319,
      "calm": 2320,
      "ph": 2321,
      "appear": 2322,
      "laughed": 2323,
      "faces": 2324,
      "edge": 2325,
      "street": 2326,
      "Arthur": 2327,
      "fro": 2328,
      "nor": 2329,
      "sister": 2330,
      "Hogs": 2331,
      "Pl": 2332,
      "hast": 2333,
      "##bl": 2334,
      "##ains": 2335,
      "expected": 2336,
      "sugg": 2337,
      "worse": 2338,
      "aren": 2339,
      "news": 2340,
      "interest": 2341,
      "obv": 2342,
      "object": 2343,
      "Hogsme": 2344,
      "Digg": 2345,
      "glo": 2346,
      "hung": 2347,
      "picked": 2348,
      "##medi": 2349,
      "closer": 2350,
      "laughter": 2351,
      "##icular": 2352,
      "Hogsmeade": 2353,
      "grou": 2354,
      "##puff": 2355,
      "##eth": 2356,
      "##rol": 2357,
      "pleased": 2358,
      "couple": 2359,
      "Huffle": 2360,
      "Luc": 2361,
      "drew": 2362,
      "jumped": 2363,
      "tree": 2364,
      "##geour": 2365,
      "Scrim": 2366,
      "difficult": 2367,
      "Hufflepuff": 2368,
      "Lucius": 2369,
      "Fl": 2370,
      "bow": 2371,
      "funny": 2372,
      "norm": 2373,
      "##uge": 2374,
      "##unch": 2375,
      "wants": 2376,
      "heavy": 2377,
      "Severus": 2378,
      "Scrimgeour": 2379,
      "##cing": 2380,
      "##ters": 2381,
      "##ament": 2382,
      "particular": 2383,
      "indeed": 2384,
      "Gri": 2385,
      "wild": 2386,
      "##eren": 2387,
      "##ital": 2388,
      "forest": 2389,
      "simply": 2390,
      "dinner": 2391,
      "hot": 2392,
      "##fast": 2393,
      "##OR": 2394,
      "##reme": 2395,
      "note": 2396,
      "pos": 2397,
      "throat": 2398,
      "apart": 2399,
      "tight": 2400,
      "tra": 2401,
      "##apped": 2402,
      "##kay": 2403,
      "##enix": 2404,
      "##aching": 2405,
      "##ushing": 2406,
      "##geon": 2407,
      "myself": 2408,
      "trust": 2409,
      "immedi": 2410,
      "##bolt": 2411,
      "subject": 2412,
      "##hoenix": 2413,
      "merely": 2414,
      "stomach": 2415,
      "bas": 2416,
      "mark": 2417,
      "##AR": 2418,
      "##ories": 2419,
      "##eter": 2420,
      "ord": 2421,
      "grow": 2422,
      "perfect": 2423,
      "wondered": 2424,
      "starting": 2425,
      "girls": 2426,
      "Im": 2427,
      "avo": 2428,
      "frown": 2429,
      "plan": 2430,
      "Granger": 2431,
      "gasped": 2432,
      "ghost": 2433,
      "Ske": 2434,
      "bath": 2435,
      "filled": 2436,
      "##ident": 2437,
      "slid": 2438,
      "Potions": 2439,
      "broomstick": 2440,
      "screamed": 2441,
      "guard": 2442,
      "laughing": 2443,
      "Dis": 2444,
      "Get": 2445,
      "fer": 2446,
      "hol": 2447,
      "tip": 2448,
      "##ife": 2449,
      "##wick": 2450,
      "##ON": 2451,
      "aside": 2452,
      "ann": 2453,
      "alive": 2454,
      "prom": 2455,
      "walk": 2456,
      "famil": 2457,
      "##phook": 2458,
      "actually": 2459,
      "Griphook": 2460,
      "Flit": 2461,
      "OK": 2462,
      "fav": 2463,
      "weren": 2464,
      "##iar": 2465,
      "##use": 2466,
      "##aily": 2467,
      "##fer": 2468,
      "##ones": 2469,
      "##oming": 2470,
      "worry": 2471,
      "somebody": 2472,
      "##avender": 2473,
      "become": 2474,
      "love": 2475,
      "remained": 2476,
      "hole": 2477,
      "needed": 2478,
      "joined": 2479,
      "remembered": 2480,
      "carefully": 2481,
      "breakfast": 2482,
      "attemp": 2483,
      "En": 2484,
      "dad": 2485,
      "tall": 2486,
      "##fted": 2487,
      "##oring": 2488,
      "##reed": 2489,
      "child": 2490,
      "##ungus": 2491,
      "leapt": 2492,
      "Diggory": 2493,
      "Flitwick": 2494,
      "Fir": 2495,
      "bent": 2496,
      "bound": 2497,
      "dem": 2498,
      "nice": 2499,
      "##orrow": 2500,
      "abs": 2501,
      "smiled": 2502,
      "tea": 2503,
      "teeth": 2504,
      "terrible": 2505,
      "strong": 2506,
      "tremb": 2507,
      "catch": 2508,
      "direction": 2509,
      "##rode": 2510,
      "picture": 2511,
      "Lavender": 2512,
      "Mund": 2513,
      "Tom": 2514,
      "huge": 2515,
      "##oth": 2516,
      "##ammed": 2517,
      "somewhere": 2518,
      "bottom": 2519,
      "adv": 2520,
      "extreme": 2521,
      "##zen": 2522,
      "##joy": 2523,
      "##ote": 2524,
      "##ays": 2525,
      "dog": 2526,
      "cho": 2527,
      "twenty": 2528,
      "firm": 2529,
      "apparently": 2530,
      "knees": 2531,
      "drink": 2532,
      "teachers": 2533,
      "Mundungus": 2534,
      "ir": 2535,
      "pink": 2536,
      "tightly": 2537,
      "view": 2538,
      "##gy": 2539,
      "##ler": 2540,
      "allowed": 2541,
      "sear": 2542,
      "realized": 2543,
      "paper": 2544,
      "surprise": 2545,
      "sharply": 2546,
      "clutching": 2547,
      "Against": 2548,
      "Skeeter": 2549,
      "Daily": 2550,
      "Eye": 2551,
      "YOU": 2552,
      "dust": 2553,
      "term": 2554,
      "##for": 2555,
      "##yond": 2556,
      "today": 2557,
      "beyond": 2558,
      "forget": 2559,
      "slipped": 2560,
      "crack": 2561,
      "proper": 2562,
      "lessons": 2563,
      "surprised": 2564,
      "oppos": 2565,
      "climbed": 2566,
      "Maybe": 2567,
      "Miss": 2568,
      "pan": 2569,
      "sense": 2570,
      "wish": 2571,
      "##not": 2572,
      "shop": 2573,
      "boys": 2574,
      "decided": 2575,
      "Scabb": 2576,
      "information": 2577,
      "Scabbers": 2578,
      "CHA": 2579,
      "Mum": 2580,
      "af": 2581,
      "none": 2582,
      "##vati": 2583,
      "##ges": 2584,
      "##par": 2585,
      "living": 2586,
      "working": 2587,
      "##itely": 2588,
      "hasn": 2589,
      "classroom": 2590,
      "forgotten": 2591,
      "Parvati": 2592,
      "Buck": 2593,
      "Rem": 2594,
      "dun": 2595,
      "pitch": 2596,
      "tail": 2597,
      "##by": 2598,
      "##ashing": 2599,
      "staff": 2600,
      "##ical": 2601,
      "##urse": 2602,
      "##ague": 2603,
      "##illy": 2604,
      "upstairs": 2605,
      "seeing": 2606,
      "attention": 2607,
      "forehead": 2608,
      "piece": 2609,
      "mirror": 2610,
      "eager": 2611,
      "Cup": 2612,
      "dest": 2613,
      "##ected": 2614,
      "itself": 2615,
      "##raid": 2616,
      "snow": 2617,
      "hosp": 2618,
      "surround": 2619,
      "closely": 2620,
      "listen": 2621,
      "hospital": 2622,
      "mess": 2623,
      "##inx": 2624,
      "##ute": 2625,
      "##aint": 2626,
      "worried": 2627,
      "secret": 2628,
      "##beak": 2629,
      "following": 2630,
      "Ern": 2631,
      "determ": 2632,
      "extra": 2633,
      "Buckbeak": 2634,
      "hiding": 2635,
      "##arl": 2636,
      "tow": 2637,
      "##steps": 2638,
      "##ude": 2639,
      "##early": 2640,
      "pol": 2641,
      "post": 2642,
      "enjoy": 2643,
      "speaking": 2644,
      "opposite": 2645,
      "Here": 2646,
      "bang": 2647,
      "cry": 2648,
      "##any": 2649,
      "##itated": 2650,
      "##ander": 2651,
      "weak": 2652,
      "conv": 2653,
      "deal": 2654,
      "happily": 2655,
      "attempt": 2656,
      "count": 2657,
      "present": 2658,
      "single": 2659,
      "afraid": 2660,
      "Lily": 2661,
      "##PTER": 2662,
      "##asure": 2663,
      "force": 2664,
      "##gelin": 2665,
      "Angelin": 2666,
      "gazing": 2667,
      "extremely": 2668,
      "Was": 2669,
      "##ces": 2670,
      "##zing": 2671,
      "##kin": 2672,
      "##its": 2673,
      "##irrell": 2674,
      "repl": 2675,
      "convers": 2676,
      "placed": 2677,
      "disg": 2678,
      "means": 2679,
      "keeping": 2680,
      "impati": 2681,
      "Slytherins": 2682,
      "minute": 2683,
      "furiously": 2684,
      "CHAPTER": 2685,
      "Nor": 2686,
      "die": 2687,
      "mass": 2688,
      "pack": 2689,
      "##atter": 2690,
      "##aded": 2691,
      "##cks": 2692,
      "ent": 2693,
      "swung": 2694,
      "##ruck": 2695,
      "##elve": 2696,
      "Quirrell": 2697,
      "weeks": 2698,
      "disappeared": 2699,
      "discus": 2700,
      "purple": 2701,
      "Never": 2702,
      "##wh": 2703,
      "notice": 2704,
      "memb": 2705,
      "libr": 2706,
      "arg": 2707,
      "voices": 2708,
      "bring": 2709,
      "grinning": 2710,
      "##rupt": 2711,
      "circ": 2712,
      "immediately": 2713,
      "holid": 2714,
      "oh": 2715,
      "##under": 2716,
      "inn": 2717,
      "##irt": 2718,
      "##blem": 2719,
      "whatever": 2720,
      "Weasleys": 2721,
      "Forest": 2722,
      "finger": 2723,
      "Angelina": 2724,
      "food": 2725,
      "hes": 2726,
      "nast": 2727,
      "warm": 2728,
      "step": 2729,
      "strode": 2730,
      "##tern": 2731,
      "sol": 2732,
      "spir": 2733,
      "footsteps": 2734,
      "powerful": 2735,
      "Firebolt": 2736,
      "Even": 2737,
      "eat": 2738,
      "rid": 2739,
      "ur": 2740,
      "##tig": 2741,
      "##inting": 2742,
      "##acing": 2743,
      "##ellent": 2744,
      "##orting": 2745,
      "##arth": 2746,
      "change": 2747,
      "passage": 2748,
      "Blud": 2749,
      "wondering": 2750,
      "homework": 2751,
      "touch": 2752,
      "figure": 2753,
      "dormitory": 2754,
      "hastily": 2755,
      "House": 2756,
      "Two": 2757,
      "page": 2758,
      "sick": 2759,
      "##ker": 2760,
      "##arled": 2761,
      "##leep": 2762,
      "##aces": 2763,
      "send": 2764,
      "seven": 2765,
      "handed": 2766,
      "##ables": 2767,
      "##unno": 2768,
      "terrified": 2769,
      "join": 2770,
      "waited": 2771,
      "Nothing": 2772,
      "cauldron": 2773,
      "Myr": 2774,
      "marble": 2775,
      "knocked": 2776,
      "ble": 2777,
      "fixed": 2778,
      "scared": 2779,
      "##ogra": 2780,
      "bedroom": 2781,
      "Pettig": 2782,
      "bellowed": 2783,
      "doubt": 2784,
      "library": 2785,
      "Myrtle": 2786,
      "Pettigrew": 2787,
      "Curse": 2788,
      "Nick": 2789,
      "ele": 2790,
      "fa": 2791,
      "##rets": 2792,
      "##itched": 2793,
      "##ads": 2794,
      "live": 2795,
      "enc": 2796,
      "moon": 2797,
      "aftern": 2798,
      "remind": 2799,
      "attacked": 2800,
      "---": 2801,
      "landed": 2802,
      "Oll": 2803,
      "grabb": 2804,
      "path": 2805,
      "##ury": 2806,
      "##tled": 2807,
      "##back": 2808,
      "##LE": 2809,
      "##arrow": 2810,
      "##rive": 2811,
      "sevent": 2812,
      "twelve": 2813,
      "reading": 2814,
      "usually": 2815,
      "##ivander": 2816,
      "rolled": 2817,
      "group": 2818,
      "je": 2819,
      "worth": 2820,
      "##tic": 2821,
      "##inct": 2822,
      "cannot": 2823,
      "##inned": 2824,
      "prophe": 2825,
      "problem": 2826,
      "##ournament": 2827,
      "nervously": 2828,
      "Appar": 2829,
      "Tower": 2830,
      "gard": 2831,
      "line": 2832,
      "mag": 2833,
      "troll": 2834,
      "##ived": 2835,
      "##uing": 2836,
      "##cause": 2837,
      "##bled": 2838,
      "beard": 2839,
      "##oney": 2840,
      "smell": 2841,
      "grim": 2842,
      "dress": 2843,
      "nearer": 2844,
      "Because": 2845,
      "playing": 2846,
      "softly": 2847,
      "firmly": 2848,
      "Somet": 2849,
      "task": 2850,
      "##pic": 2851,
      "##omp": 2852,
      "delight": 2853,
      "glad": 2854,
      "##ount": 2855,
      "follow": 2856,
      "owls": 2857,
      "meeting": 2858,
      "phot": 2859,
      "afternoon": 2860,
      "Ollivander": 2861,
      "Kat": 2862,
      "due": 2863,
      "##ides": 2864,
      "##enched": 2865,
      "##illi": 2866,
      "Charl": 2867,
      "locket": 2868,
      "waving": 2869,
      "among": 2870,
      "surf": 2871,
      "Patron": 2872,
      "particularly": 2873,
      "bathroom": 2874,
      "Katie": 2875,
      "Bur": 2876,
      "earth": 2877,
      "gro": 2878,
      "hon": 2879,
      "showed": 2880,
      "##rib": 2881,
      "spent": 2882,
      "thinks": 2883,
      "prefect": 2884,
      "##ibly": 2885,
      "forwards": 2886,
      "normal": 2887,
      "conversation": 2888,
      "Charlie": 2889,
      "Have": 2890,
      "##ual": 2891,
      "##?”": 2892,
      "##arc": 2893,
      "curse": 2894,
      "halfway": 2895,
      "Madame": 2896,
      "excit": 2897,
      "maybe": 2898,
      "prophecy": 2899,
      "Half": 2900,
      "born": 2901,
      "fist": 2902,
      "gen": 2903,
      "perm": 2904,
      "trave": 2905,
      "##arily": 2906,
      "##irth": 2907,
      "asleep": 2908,
      "worked": 2909,
      "glit": 2910,
      "gray": 2911,
      "diary": 2912,
      "##olly": 2913,
      "sideways": 2914,
      "corridors": 2915,
      "Prime": 2916,
      "defin": 2917,
      "deserted": 2918,
      "##blood": 2919,
      "determined": 2920,
      "Fang": 2921,
      "Master": 2922,
      "jump": 2923,
      "map": 2924,
      "##ian": 2925,
      "##lic": 2926,
      "##ars": 2927,
      "##imp": 2928,
      "changed": 2929,
      "brain": 2930,
      "skin": 2931,
      "faced": 2932,
      "fallen": 2933,
      "spells": 2934,
      "heavily": 2935,
      "shadow": 2936,
      "copy": 2937,
      "Patronus": 2938,
      "Long": 2939,
      "cage": 2940,
      "sy": 2941,
      "##ale": 2942,
      "##otion": 2943,
      "trick": 2944,
      "grass": 2945,
      "shoulders": 2946,
      "Stone": 2947,
      "explain": 2948,
      "approached": 2949,
      "crossed": 2950,
      "hanging": 2951,
      "List": 2952,
      "Pe": 2953,
      "emb": 2954,
      "faint": 2955,
      "##co": 2956,
      "##hil": 2957,
      "tom": 2958,
      "##otts": 2959,
      "unless": 2960,
      "smoot": 2961,
      "##ollow": 2962,
      "pret": 2963,
      "cheer": 2964,
      "throwing": 2965,
      "falling": 2966,
      "Everyone": 2967,
      "missed": 2968,
      "suspic": 2969,
      "certainly": 2970,
      "##ength": 2971,
      "##ograph": 2972,
      "Max": 2973,
      "ess": 2974,
      "grave": 2975,
      "moun": 2976,
      "##come": 2977,
      "##fig": 2978,
      "##OT": 2979,
      "##lease": 2980,
      "bew": 2981,
      "beaming": 2982,
      "##ooped": 2983,
      "##entr": 2984,
      "reve": 2985,
      "sho": 2986,
      "leaned": 2987,
      "rock": 2988,
      "##ieve": 2989,
      "Three": 2990,
      "brightly": 2991,
      "curtain": 2992,
      "Once": 2993,
      "further": 2994,
      "garden": 2995,
      "surface": 2996,
      "Maxime": 2997,
      "Corn": 2998,
      "aff": 2999,
      "dare": 3000,
      "yer": 3001,
      "stat": 3002,
      "##irty": 3003,
      "rece": 3004,
      "spark": 3005,
      "poor": 3006,
      "##upted": 3007,
      "hurrying": 3008,
      "scarlet": 3009,
      "fighting": 3010,
      "hoping": 3011,
      "stretched": 3012,
      "frowning": 3013,
      "trembling": 3014,
      "Ernie": 3015,
      "nasty": 3016,
      "Br": 3017,
      "Nearly": 3018,
      "cand": 3019,
      "fool": 3020,
      "field": 3021,
      "##ixt": 3022,
      "##ipping": 3023,
      "##gin": 3024,
      "##aid": 3025,
      "##bot": 3026,
      "##ceed": 3027,
      "split": 3028,
      "cloud": 3029,
      "using": 3030,
      "headed": 3031,
      "compl": 3032,
      "Department": 3033,
      "Chamber": 3034,
      "Hallows": 3035,
      "Trans": 3036,
      "birth": 3037,
      "narrow": 3038,
      "sank": 3039,
      "vill": 3040,
      "##set": 3041,
      "##lum": 3042,
      "often": 3043,
      "##reaking": 3044,
      "##ott": 3045,
      "ones": 3046,
      "##illing": 3047,
      "##bbed": 3048,
      "imm": 3049,
      "anger": 3050,
      "eyebr": 3051,
      "possess": 3052,
      "murm": 3053,
      "months": 3054,
      "eagerly": 3055,
      "eyebrows": 3056,
      "Grey": 3057,
      "Love": 3058,
      "Wand": 3059,
      "dra": 3060,
      "okay": 3061,
      "pub": 3062,
      "tables": 3063,
      "win": 3064,
      "##more": 3065,
      "##inary": 3066,
      "##attered": 3067,
      "ink": 3068,
      "invis": 3069,
      "##ots": 3070,
      "##rout": 3071,
      "##anded": 3072,
      "pressed": 3073,
      "##ruct": 3074,
      "putting": 3075,
      "slee": 3076,
      "facing": 3077,
      "business": 3078,
      "Prince": 3079,
      "nervous": 3080,
      "centa": 3081,
      "perfectly": 3082,
      "Listen": 3083,
      "cro": 3084,
      "dread": 3085,
      "fault": 3086,
      "##af": 3087,
      "shr": 3088,
      "liked": 3089,
      "snarled": 3090,
      "shouldn": 3091,
      "However": 3092,
      "distant": 3093,
      "effort": 3094,
      "concentr": 3095,
      "Wizarding": 3096,
      "impatiently": 3097,
      "Greyback": 3098,
      "Me": 3099,
      "Po": 3100,
      "lunch": 3101,
      "row": 3102,
      "rain": 3103,
      "zoom": 3104,
      "##asant": 3105,
      "save": 3106,
      "##aling": 3107,
      "suff": 3108,
      "waved": 3109,
      "nearest": 3110,
      "Only": 3111,
      "Perhaps": 3112,
      "seems": 3113,
      "busy": 3114,
      "cupboard": 3115,
      "evid": 3116,
      "irrit": 3117,
      "Kings": 3118,
      "Lee": 3119,
      "Ph": 3120,
      "bother": 3121,
      "game": 3122,
      "hide": 3123,
      "hig": 3124,
      "##ole": 3125,
      "##wizard": 3126,
      "##OO": 3127,
      "##ony": 3128,
      "inj": 3129,
      "##vel": 3130,
      "showing": 3131,
      "unable": 3132,
      "early": 3133,
      "muttering": 3134,
      "inches": 3135,
      "##ances": 3136,
      "disco": 3137,
      "spotted": 3138,
      "Spell": 3139,
      "explo": 3140,
      "fifty": 3141,
      "emerged": 3142,
      "tomorrow": 3143,
      "pretty": 3144,
      "invisible": 3145,
      "Sm": 3146,
      "Xen": 3147,
      "jinx": 3148,
      "##how": 3149,
      "##uding": 3150,
      "##ants": 3151,
      "##anting": 3152,
      "headmaster": 3153,
      "arr": 3154,
      "impress": 3155,
      "control": 3156,
      "speed": 3157,
      "spect": 3158,
      "questions": 3159,
      "echoed": 3160,
      "human": 3161,
      "obviously": 3162,
      "Longbot": 3163,
      "Kingsley": 3164,
      "Longbottom": 3165,
      "Aur": 3166,
      "fun": 3167,
      "fil": 3168,
      "jer": 3169,
      "men": 3170,
      "nine": 3171,
      "pow": 3172,
      "##ores": 3173,
      "##llo": 3174,
      "asking": 3175,
      "witches": 3176,
      "##alle": 3177,
      "neither": 3178,
      "lift": 3179,
      "lips": 3180,
      "une": 3181,
      "##izing": 3182,
      "thoughts": 3183,
      "press": 3184,
      "thrown": 3185,
      "sharp": 3186,
      "practice": 3187,
      "shrieked": 3188,
      "frightened": 3189,
      "growled": 3190,
      "By": 3191,
      "sens": 3192,
      "##val": 3193,
      "##zed": 3194,
      "##bs": 3195,
      "goblet": 3196,
      "spl": 3197,
      "slight": 3198,
      "Potion": 3199,
      "appre": 3200,
      "passing": 3201,
      "screaming": 3202,
      "drawing": 3203,
      "occas": 3204,
      "hesitated": 3205,
      "Wor": 3206,
      "mer": 3207,
      "soul": 3208,
      "test": 3209,
      "##idly": 3210,
      "threat": 3211,
      "hissed": 3212,
      "##velo": 3213,
      "##urb": 3214,
      "##ongue": 3215,
      "##ighed": 3216,
      "ench": 3217,
      "twice": 3218,
      "appl": 3219,
      "moments": 3220,
      "##ucked": 3221,
      "Horcruxes": 3222,
      "position": 3223,
      "grabbed": 3224,
      "Galle": 3225,
      "Mer": 3226,
      "Mark": 3227,
      "pay": 3228,
      "ward": 3229,
      "##ified": 3230,
      "stuck": 3231,
      "##ult": 3232,
      "##ophil": 3233,
      "clot": 3234,
      "flames": 3235,
      "Nobody": 3236,
      "##apping": 3237,
      "badly": 3238,
      "Charms": 3239,
      "Anyway": 3240,
      "Xenophil": 3241,
      "Xenophilius": 3242,
      "God": 3243,
      "dementors": 3244,
      "##io": 3245,
      "##ior": 3246,
      "##ias": 3247,
      "##aut": 3248,
      "##rog": 3249,
      "##roy": 3250,
      "spread": 3251,
      "Thank": 3252,
      "Thanks": 3253,
      "##unned": 3254,
      "carried": 3255,
      "yellow": 3256,
      "writing": 3257,
      "easy": 3258,
      "dungeon": 3259,
      "Transfig": 3260,
      "gra": 3261,
      "tone": 3262,
      "wake": 3263,
      "shrugg": 3264,
      "charm": 3265,
      "##apter": 3266,
      "growing": 3267,
      "##oughly": 3268,
      "prev": 3269,
      "##ilda": 3270,
      "letters": 3271,
      "protect": 3272,
      "Sprout": 3273,
      "entire": 3274,
      "Something": 3275,
      "Priv": 3276,
      "Sorry": 3277,
      "rising": 3278,
      "##night": 3279,
      "##AN": 3280,
      "reach": 3281,
      "upward": 3282,
      "##ulus": 3283,
      "worst": 3284,
      "plat": 3285,
      "thank": 3286,
      "##thy": 3287,
      "Quaff": 3288,
      "helped": 3289,
      "satis": 3290,
      "carri": 3291,
      "interested": 3292,
      "understood": 3293,
      "disappo": 3294,
      "refle": 3295,
      "champions": 3296,
      "familiar": 3297,
      "definitely": 3298,
      "birthday": 3299,
      "Am": 3300,
      "Tri": 3301,
      "Will": 3302,
      "fat": 3303,
      "fit": 3304,
      "packed": 3305,
      "##oss": 3306,
      "##ne": 3307,
      "##uice": 3308,
      "##end": 3309,
      "hearing": 3310,
      "fresh": 3311,
      "##inked": 3312,
      "downstairs": 3313,
      "unple": 3314,
      "conn": 3315,
      "comfort": 3316,
      "compartment": 3317,
      "swept": 3318,
      "teach": 3319,
      "snat": 3320,
      "sounding": 3321,
      "##ementor": 3322,
      "student": 3323,
      "party": 3324,
      "highly": 3325,
      "seriously": 3326,
      "Reg": 3327,
      "seats": 3328,
      "wooden": 3329,
      "shouting": 3330,
      "gleaming": 3331,
      "gloom": 3332,
      "annoy": 3333,
      "##formed": 3334,
      "Bludger": 3335,
      "Most": 3336,
      "eh": 3337,
      "lur": 3338,
      "names": 3339,
      "size": 3340,
      "und": 3341,
      "##ium": 3342,
      "##aunt": 3343,
      "##aky": 3344,
      "shining": 3345,
      "exper": 3346,
      "nois": 3347,
      "plann": 3348,
      "thanks": 3349,
      "brilli": 3350,
      "prec": 3351,
      "coldly": 3352,
      "##racted": 3353,
      "patch": 3354,
      "leading": 3355,
      "Drive": 3356,
      "Mor": 3357,
      "Please": 3358,
      "bin": 3359,
      "bird": 3360,
      "pile": 3361,
      "pause": 3362,
      "##ding": 3363,
      "##uct": 3364,
      "##cess": 3365,
      "##arg": 3366,
      "##oned": 3367,
      "beat": 3368,
      "##lder": 3369,
      "whist": 3370,
      "##terly": 3371,
      "lifted": 3372,
      "##ational": 3373,
      "remain": 3374,
      "prep": 3375,
      "breathing": 3376,
      "incl": 3377,
      "##cial": 3378,
      "lucky": 3379,
      "objects": 3380,
      "holidays": 3381,
      "excitement": 3382,
      "glittering": 3383,
      "Privet": 3384,
      "eight": 3385,
      "lamp": 3386,
      "##ik": 3387,
      "##ues": 3388,
      "##ait": 3389,
      "##ses": 3390,
      "##mm": 3391,
      "##ingotts": 3392,
      "##roud": 3393,
      "##olate": 3394,
      "chee": 3395,
      "Stan": 3396,
      "louder": 3397,
      "creatures": 3398,
      "excitedly": 3399,
      "village": 3400,
      "platform": 3401,
      "Quaffle": 3402,
      "Triwizard": 3403,
      "Aber": 3404,
      "Fin": 3405,
      "Molly": 3406,
      "Phoenix": 3407,
      "Would": 3408,
      "age": 3409,
      "dam": 3410,
      "dunno": 3411,
      "sighed": 3412,
      "##ency": 3413,
      "halt": 3414,
      "Harrys": 3415,
      "##ards": 3416,
      "##usted": 3417,
      "soared": 3418,
      "##antic": 3419,
      "##aught": 3420,
      "swall": 3421,
      "flick": 3422,
      "##ineas": 3423,
      "##dding": 3424,
      "##els": 3425,
      "##quire": 3426,
      "surely": 3427,
      "sounds": 3428,
      "Gringotts": 3429,
      "horror": 3430,
      "furious": 3431,
      "deeply": 3432,
      "Exc": 3433,
      "miser": 3434,
      "burning": 3435,
      "escape": 3436,
      "warning": 3437,
      "##ING": 3438,
      "favor": 3439,
      "properly": 3440,
      "solid": 3441,
      "photograph": 3442,
      "cool": 3443,
      "pure": 3444,
      "##uce": 3445,
      "stri": 3446,
      "##uration": 3447,
      "##urred": 3448,
      "somehow": 3449,
      "##elius": 3450,
      "armch": 3451,
      "belong": 3452,
      "##rief": 3453,
      "##forth": 3454,
      "relief": 3455,
      "effect": 3456,
      "Cornelius": 3457,
      "Phineas": 3458,
      "fold": 3459,
      "kid": 3460,
      "pound": 3461,
      "##den": 3462,
      "##wise": 3463,
      "##reg": 3464,
      "saved": 3465,
      "##elling": 3466,
      "lived": 3467,
      "whee": 3468,
      "sped": 3469,
      "anybody": 3470,
      "impression": 3471,
      "firepl": 3472,
      "careful": 3473,
      "detention": 3474,
      "Headless": 3475,
      "shortly": 3476,
      "learned": 3477,
      "avoid": 3478,
      "Bor": 3479,
      "Fat": 3480,
      "Room": 3481,
      "rang": 3482,
      "ut": 3483,
      "wra": 3484,
      "…\"": 3485,
      "##gly": 3486,
      "##sion": 3487,
      "inf": 3488,
      "##omfort": 3489,
      "##key": 3490,
      "##ouses": 3491,
      "knowing": 3492,
      "anymore": 3493,
      "slammed": 3494,
      "cover": 3495,
      "Grind": 3496,
      "serv": 3497,
      "lowered": 3498,
      "##ocolate": 3499,
      "landing": 3500,
      "Someone": 3501,
      "concern": 3502,
      "spectac": 3503,
      "Transfiguration": 3504,
      "Con": 3505,
      "Div": 3506,
      "ast": 3507,
      "bab": 3508,
      "hood": 3509,
      "##ren": 3510,
      "##bidden": 3511,
      "##AT": 3512,
      "##ines": 3513,
      "##agon": 3514,
      "Their": 3515,
      "unf": 3516,
      "everybody": 3517,
      "amaz": 3518,
      "surv": 3519,
      "elves": 3520,
      "Gryffindors": 3521,
      "famous": 3522,
      "grip": 3523,
      "calmly": 3524,
      "delighted": 3525,
      "smooth": 3526,
      "higher": 3527,
      "occasion": 3528,
      "Like": 3529,
      "fier": 3530,
      "priv": 3531,
      "##ivering": 3532,
      "##ring": 3533,
      "##armed": 3534,
      "##itting": 3535,
      "##oof": 3536,
      "##ety": 3537,
      "##riff": 3538,
      "abrupt": 3539,
      "##ieved": 3540,
      "likely": 3541,
      "conce": 3542,
      "defe": 3543,
      "deli": 3544,
      "smoke": 3545,
      "happening": 3546,
      "resp": 3547,
      "serious": 3548,
      "persu": 3549,
      "aware": 3550,
      "murder": 3551,
      "rubb": 3552,
      "written": 3553,
      "midair": 3554,
      "##wolf": 3555,
      "Disapp": 3556,
      "panic": 3557,
      "destroy": 3558,
      "clothes": 3559,
      "Col": 3560,
      "Graw": 3561,
      "Had": 3562,
      "Narc": 3563,
      "Og": 3564,
      "Out": 3565,
      "money": 3566,
      "ring": 3567,
      "wings": 3568,
      "##zy": 3569,
      "##RE": 3570,
      "##attering": 3571,
      "thunder": 3572,
      "rev": 3573,
      "##eeling": 3574,
      "##unted": 3575,
      "goal": 3576,
      "anywhere": 3577,
      "scene": 3578,
      "twins": 3579,
      "##olved": 3580,
      "##action": 3581,
      "silvery": 3582,
      "hurry": 3583,
      "joke": 3584,
      "final": 3585,
      "##issa": 3586,
      "incred": 3587,
      "expelled": 3588,
      "consid": 3589,
      "creature": 3590,
      "anxiously": 3591,
      "desperately": 3592,
      "suggest": 3593,
      "##while": 3594,
      "Aberforth": 3595,
      "Divination": 3596,
      "Grawp": 3597,
      "Narcissa": 3598,
      "OF": 3599,
      "Pens": 3600,
      "gigg": 3601,
      "journ": 3602,
      "lawn": 3603,
      "mus": 3604,
      "mine": 3605,
      "pin": 3606,
      "pill": 3607,
      "##ah": 3608,
      "##tor": 3609,
      "strid": 3610,
      "stick": 3611,
      "##vey": 3612,
      "##aging": 3613,
      "##pper": 3614,
      "##ilt": 3615,
      "##ils": 3616,
      "werewolf": 3617,
      "spider": 3618,
      "poison": 3619,
      "sometimes": 3620,
      "remo": 3621,
      "cleared": 3622,
      "##ounced": 3623,
      "##ific": 3624,
      "##ossible": 3625,
      "Pensieve": 3626,
      "Could": 3627,
      "Dementor": 3628,
      "Lady": 3629,
      "breaking": 3630,
      "dar": 3631,
      "gather": 3632,
      "mood": 3633,
      "proud": 3634,
      "–”": 3635,
      "##lcome": 3636,
      "##asted": 3637,
      "stream": 3638,
      "weight": 3639,
      "alth": 3640,
      "##anging": 3641,
      "grand": 3642,
      "loads": 3643,
      "clean": 3644,
      "instruct": 3645,
      "distance": 3646,
      "--”": 3647,
      "dragged": 3648,
      "Didn": 3649,
      "protection": 3650,
      "escaped": 3651,
      "Defence": 3652,
      "innoc": 3653,
      "although": 3654,
      "Bath": 3655,
      "Lud": 3656,
      "gul": 3657,
      "mum": 3658,
      "panted": 3659,
      "ugly": 3660,
      "##ading": 3661,
      "dozen": 3662,
      "##unity": 3663,
      "##isting": 3664,
      "agreed": 3665,
      "feast": 3666,
      "##ogriff": 3667,
      "flung": 3668,
      "peering": 3669,
      "contact": 3670,
      "nearby": 3671,
      "realised": 3672,
      "##osen": 3673,
      "impossible": 3674,
      "believed": 3675,
      "fourth": 3676,
      "movement": 3677,
      "##ertainly": 3678,
      "mistake": 3679,
      "directly": 3680,
      "double": 3681,
      "##ippogriff": 3682,
      "missing": 3683,
      "scrat": 3684,
      "scram": 3685,
      "suggested": 3686,
      "Firen": 3687,
      "members": 3688,
      "fierce": 3689,
      "Disappar": 3690,
      "ben": 3691,
      "##?'": 3692,
      "##ution": 3693,
      "##oose": 3694,
      "##urm": 3695,
      "##amm": 3696,
      "##umbling": 3697,
      "enter": 3698,
      "blind": 3699,
      "##bbly": 3700,
      "heading": 3701,
      "glance": 3702,
      "glancing": 3703,
      "brown": 3704,
      "Chapter": 3705,
      "opening": 3706,
      "recognized": 3707,
      "attempted": 3708,
      "children": 3709,
      "gener": 3710,
      "People": 3711,
      "Borgin": 3712,
      "Ludo": 3713,
      "Keeper": 3714,
      "Mud": 3715,
      "Marge": 3716,
      "OW": 3717,
      "fury": 3718,
      "pour": 3719,
      "treat": 3720,
      "##good": 3721,
      "##father": 3722,
      "##mer": 3723,
      "##mist": 3724,
      "##unks": 3725,
      "lie": 3726,
      "##ember": 3727,
      "uncle": 3728,
      "brand": 3729,
      "locked": 3730,
      "Headmaster": 3731,
      "blond": 3732,
      "temper": 3733,
      "curtains": 3734,
      "journey": 3735,
      "Firenze": 3736,
      "Mudblood": 3737,
      "-’": 3738,
      "Creat": 3739,
      "cas": 3740,
      "fair": 3741,
      "wished": 3742,
      "##cto": 3743,
      "##tling": 3744,
      "##ature": 3745,
      "##urity": 3746,
      "##terbe": 3747,
      "##iles": 3748,
      "exch": 3749,
      "##estly": 3750,
      "order": 3751,
      "flut": 3752,
      "everywhere": 3753,
      "harder": 3754,
      "Alley": 3755,
      "indign": 3756,
      "dragons": 3757,
      "marched": 3758,
      "accident": 3759,
      "uncomfort": 3760,
      "explained": 3761,
      "touched": 3762,
      "goblins": 3763,
      "shocked": 3764,
      "From": 3765,
      "Secrets": 3766,
      "anxious": 3767,
      "basin": 3768,
      "Lovegood": 3769,
      "Galleons": 3770,
      "Bathilda": 3771,
      "Bog": 3772,
      "Sorting": 3773,
      "aim": 3774,
      "dim": 3775,
      "main": 3776,
      "rage": 3777,
      "##iver": 3778,
      "##ibb": 3779,
      "##aud": 3780,
      "sad": 3781,
      "station": 3782,
      "##rier": 3783,
      "chairs": 3784,
      "track": 3785,
      "prod": 3786,
      "##elw": 3787,
      "Still": 3788,
      "raising": 3789,
      "paused": 3790,
      "drop": 3791,
      "hundreds": 3792,
      "triump": 3793,
      "hoped": 3794,
      "demanded": 3795,
      "Colin": 3796,
      "Creatures": 3797,
      "Lond": 3798,
      "Yeh": 3799,
      "pen": 3800,
      "##ov": 3801,
      "##oken": 3802,
      "##zz": 3803,
      "##lly": 3804,
      "##oted": 3805,
      "##agged": 3806,
      "##umin": 3807,
      "##auld": 3808,
      "space": 3809,
      "feather": 3810,
      "##angled": 3811,
      "dived": 3812,
      "McL": 3813,
      "clever": 3814,
      "finish": 3815,
      "Before": 3816,
      "squee": 3817,
      "confused": 3818,
      "Frank": 3819,
      "….”": 3820,
      "struggling": 3821,
      "Imper": 3822,
      "convin": 3823,
      "World": 3824,
      "previous": 3825,
      "Ogden": 3826,
      "London": 3827,
      "Di": 3828,
      "Faw": 3829,
      "vague": 3830,
      "##ob": 3831,
      "##ner": 3832,
      "##aper": 3833,
      "##RY": 3834,
      "toad": 3835,
      "stir": 3836,
      "ant": 3837,
      "##une": 3838,
      "plain": 3839,
      "twisted": 3840,
      "doorway": 3841,
      "##aping": 3842,
      "tele": 3843,
      "security": 3844,
      "prefer": 3845,
      "write": 3846,
      "haired": 3847,
      "settled": 3848,
      "leaves": 3849,
      "gaze": 3850,
      "counter": 3851,
      "##aggen": 3852,
      "ignored": 3853,
      "shadows": 3854,
      "checking": 3855,
      "interesting": 3856,
      "McLaggen": 3857,
      "Got": 3858,
      "keen": 3859,
      "lower": 3860,
      "makes": 3861,
      "ripped": 3862,
      "sour": 3863,
      "tap": 3864,
      "##iry": 3865,
      "##gar": 3866,
      "##ressed": 3867,
      "##fin": 3868,
      "##AS": 3869,
      "##ayed": 3870,
      "##usion": 3871,
      "therefore": 3872,
      "pop": 3873,
      "##imey": 3874,
      "smir": 3875,
      "##uffy": 3876,
      "broad": 3877,
      "##shot": 3878,
      "visible": 3879,
      "disappear": 3880,
      "backwards": 3881,
      "echoing": 3882,
      "imagine": 3883,
      "choice": 3884,
      "murmured": 3885,
      "Godric": 3886,
      "swallowed": 3887,
      "fireplace": 3888,
      "Cour": 3889,
      "Mur": 3890,
      "bul": 3891,
      "cre": 3892,
      "lad": 3893,
      "tired": 3894,
      "vi": 3895,
      "##LL": 3896,
      "##inger": 3897,
      "hea": 3898,
      "##ooking": 3899,
      "shudd": 3900,
      "unw": 3901,
      "yours": 3902,
      "dev": 3903,
      "enth": 3904,
      "gets": 3905,
      "grinned": 3906,
      "newsp": 3907,
      "excellent": 3908,
      "useful": 3909,
      "awake": 3910,
      "build": 3911,
      "gazed": 3912,
      "expecting": 3913,
      "Goblet": 3914,
      "burned": 3915,
      "failed": 3916,
      "brilliant": 3917,
      "armchair": 3918,
      "OWL": 3919,
      "),": 3920,
      "Durm": 3921,
      "HP": 3922,
      "Ros": 3923,
      "Tw": 3924,
      "crou": 3925,
      "crying": 3926,
      "key": 3927,
      "kicked": 3928,
      "lim": 3929,
      "panting": 3930,
      "wet": 3931,
      "wave": 3932,
      "##ded": 3933,
      "##tles": 3934,
      "##ert": 3935,
      "##ities": 3936,
      "stagg": 3937,
      "notes": 3938,
      "level": 3939,
      "nodding": 3940,
      "##ules": 3941,
      "slip": 3942,
      "flash": 3943,
      "##olute": 3944,
      "dressed": 3945,
      "classes": 3946,
      "capt": 3947,
      "##strang": 3948,
      "Defense": 3949,
      "appearance": 3950,
      "country": 3951,
      "magn": 3952,
      "received": 3953,
      "unpleasant": 3954,
      "baby": 3955,
      "triumph": 3956,
      "Durmstrang": 3957,
      "'-": 3958,
      "Hist": 3959,
      "Satur": 3960,
      "pump": 3961,
      "sway": 3962,
      "tort": 3963,
      "vault": 3964,
      "##aun": 3965,
      "##bat": 3966,
      "##arters": 3967,
      "##iders": 3968,
      "inch": 3969,
      "##ache": 3970,
      "reapp": 3971,
      "##logy": 3972,
      "backed": 3973,
      "leaning": 3974,
      "exist": 3975,
      "handle": 3976,
      "envelo": 3977,
      "plate": 3978,
      "peered": 3979,
      "##eeping": 3980,
      "Next": 3981,
      "desp": 3982,
      "lights": 3983,
      "Deathly": 3984,
      "distinct": 3985,
      "continue": 3986,
      "caused": 3987,
      "buy": 3988,
      "attempting": 3989,
      "Burrow": 3990,
      "statue": 3991,
      "enthus": 3992,
      "Saturday": 3993,
      "Acc": 3994,
      "Cl": 3995,
      "Hat": 3996,
      "Occ": 3997,
      "Tell": 3998,
      "gest": 3999,
      "slo": 4000,
      "“…": 4001,
      "##sand": 4002,
      "##kn": 4003,
      "##ED": 4004,
      "toile": 4005,
      "thor": 4006,
      "beaut": 4007,
      "thousand": 4008,
      "alarm": 4009,
      "unus": 4010,
      "const": 4011,
      "##bbled": 4012,
      "muff": 4013,
      "handsome": 4014,
      "helping": 4015,
      "accomp": 4016,
      "examining": 4017,
      "murd": 4018,
      "sweat": 4019,
      "easily": 4020,
      "punish": 4021,
      "pretending": 4022,
      "cryst": 4023,
      "Morfin": 4024,
      "Grindelw": 4025,
      "Fawkes": 4026,
      "History": 4027,
      "Grindelwald": 4028,
      "',": 4029,
      "Bul": 4030,
      "Care": 4031,
      "Hippogriff": 4032,
      "Pig": 4033,
      "Squ": 4034,
      "brave": 4035,
      "pick": 4036,
      "pushing": 4037,
      "wife": 4038,
      "##bow": 4039,
      "##ES": 4040,
      "##eding": 4041,
      "struck": 4042,
      "##ooked": 4043,
      "##acket": 4044,
      "knife": 4045,
      "suit": 4046,
      "char": 4047,
      "places": 4048,
      "smashed": 4049,
      "glaring": 4050,
      "##gged": 4051,
      "teaching": 4052,
      "wanting": 4053,
      "lock": 4054,
      "wizarding": 4055,
      "desce": 4056,
      "wrote": 4057,
      "stands": 4058,
      "perform": 4059,
      "##fortun": 4060,
      "difficulty": 4061,
      "figures": 4062,
      "Entrance": 4063,
      "essay": 4064,
      "mountain": 4065,
      "##quirement": 4066,
      "abruptly": 4067,
      "##terbeer": 4068,
      "viol": 4069,
      "bought": 4070,
      "dying": 4071,
      "dirty": 4072,
      "jus": 4073,
      "kiss": 4074,
      "tournament": 4075,
      "##ha": 4076,
      "##word": 4077,
      "throw": 4078,
      "stad": 4079,
      "##uries": 4080,
      "##umed": 4081,
      "##ction": 4082,
      "##angling": 4083,
      "Del": 4084,
      "crash": 4085,
      "curled": 4086,
      "calling": 4087,
      "##iping": 4088,
      "realize": 4089,
      "fellow": 4090,
      "interr": 4091,
      "decide": 4092,
      "##cient": 4093,
      "square": 4094,
      "Requirement": 4095
    }
  }
}